{"<s>":0,"<pad>":1,"</s>":2,"<unk>":3,"<mask>":4,"!":5,"\"":6,"#":7,"$":8,"%":9,"&":10,"'":11,"(":12,")":13,"*":14,"+":15,",":16,"-":17,".":18,"/":19,"0":20,"1":21,"2":22,"3":23,"4":24,"5":25,"6":26,"7":27,"8":28,"9":29,":":30,";":31,"<":32,"=":33,">":34,"?":35,"@":36,"A":37,"B":38,"C":39,"D":40,"E":41,"F":42,"G":43,"H":44,"I":45,"J":46,"K":47,"L":48,"M":49,"N":50,"O":51,"P":52,"Q":53,"R":54,"S":55,"T":56,"U":57,"V":58,"W":59,"X":60,"Y":61,"Z":62,"[":63,"\\":64,"]":65,"^":66,"_":67,"`":68,"a":69,"b":70,"c":71,"d":72,"e":73,"f":74,"g":75,"h":76,"i":77,"j":78,"k":79,"l":80,"m":81,"n":82,"o":83,"p":84,"q":85,"r":86,"s":87,"t":88,"u":89,"v":90,"w":91,"x":92,"y":93,"z":94,"{":95,"|":96,"}":97,"~":98,"¡":99,"¢":100,"£":101,"¤":102,"¥":103,"¦":104,"§":105,"¨":106,"©":107,"ª":108,"«":109,"¬":110,"®":111,"¯":112,"°":113,"±":114,"²":115,"³":116,"´":117,"µ":118,"¶":119,"·":120,"¸":121,"¹":122,"º":123,"»":124,"¼":125,"½":126,"¾":127,"¿":128,"À":129,"Á":130,"Â":131,"Ã":132,"Ä":133,"Å":134,"Æ":135,"Ç":136,"È":137,"É":138,"Ê":139,"Ë":140,"Ì":141,"Í":142,"Î":143,"Ï":144,"Ð":145,"Ñ":146,"Ò":147,"Ó":148,"Ô":149,"Õ":150,"Ö":151,"×":152,"Ø":153,"Ù":154,"Ú":155,"Û":156,"Ü":157,"Ý":158,"Þ":159,"ß":160,"à":161,"á":162,"â":163,"ã":164,"ä":165,"å":166,"æ":167,"ç":168,"è":169,"é":170,"ê":171,"ë":172,"ì":173,"í":174,"î":175,"ï":176,"ð":177,"ñ":178,"ò":179,"ó":180,"ô":181,"õ":182,"ö":183,"÷":184,"ø":185,"ù":186,"ú":187,"û":188,"ü":189,"ý":190,"þ":191,"ÿ":192,"Ā":193,"ā":194,"Ă":195,"ă":196,"Ą":197,"ą":198,"Ć":199,"ć":200,"Ĉ":201,"ĉ":202,"Ċ":203,"ċ":204,"Č":205,"č":206,"Ď":207,"ď":208,"Đ":209,"đ":210,"Ē":211,"ē":212,"Ĕ":213,"ĕ":214,"Ė":215,"ė":216,"Ę":217,"ę":218,"Ě":219,"ě":220,"Ĝ":221,"ĝ":222,"Ğ":223,"ğ":224,"Ġ":225,"ġ":226,"Ģ":227,"ģ":228,"Ĥ":229,"ĥ":230,"Ħ":231,"ħ":232,"Ĩ":233,"ĩ":234,"Ī":235,"ī":236,"Ĭ":237,"ĭ":238,"Į":239,"į":240,"İ":241,"ı":242,"Ĳ":243,"ĳ":244,"Ĵ":245,"ĵ":246,"Ķ":247,"ķ":248,"ĸ":249,"Ĺ":250,"ĺ":251,"Ļ":252,"ļ":253,"Ľ":254,"ľ":255,"Ŀ":256,"ŀ":257,"Ł":258,"ł":259,"Ń":260,"à¤":261,"à¥":262,"à¤¾":263,"à¥į":264,"à¤°":265,"à¤¿":266,"à¤¨":267,"à¤ķ":268,"à¤¸":269,"à¤¤":270,"à¤²":271,"à¥Ģ":272,"à¤®":273,"à¤Ĥ":274,"à¥ĩ":275,"à¤µ":276,"à¤ª":277,"à¥ĭ":278,"à¤¯":279,"à¤Ł":280,"à¤¦":281,"à¤Ĺ":282,"à¥ģ":283,"à¤ľ":284,"à¤¬":285,"à¤¹":286,"à¤¡":287,"à¤¶":288,"à¤ļ":289,"à¥Ĥ":290,"à¤ħ":291,"10":292,"12":293,"13":294,"19":295,"à¥ĭà¤Ĥ":296,"18":297,"15":298,"14":299,"16":300,"17":301,"à¤¼":302,"20":303,"à¥Ī":304,"à¤§":305,"23":306,"25":307,"28":308,"24":309,"27":310,"26":311,"à¤ı":312,"29":313,"à¤«":314,"à¤·":315,"30":316,"50":317,"34":318,"36":319,"37":320,"38":321,"39":322,"57":323,"56":324,"59":325,"54":326,"à¤Ń":327,"58":328,"à¤£":329,"à¤ĩ":330,"40":331,"48":332,"47":333,"49":334,"46":335,"à¤Ĩ":336,"à¤¥":337,"à¤ĸ":338,"60":339,"à¤ī":340,"à¥ī":341,"33":342,"à¤Ī":343,"55":344,"à¤¾à¤Ĥ":345,"44":346,"11":347,"à¥ĩà¤Ĥ":348,"à¤ķà¤°":349,"35":350,"âĢ":351,"à¥¤":352,"22":353,"à¤¿à¤Ĥ":354,"à¤ªà¤°":355,"00":356,"à¤µà¤°":357,"45":358,"à¥ĥ":359,"68":360,"69":361,"67":362,"à¤ĵ":363,"à¥Į":364,"43":365,"53":366,"87":367,"97":368,"à¤°à¤¤":369,"à¤ģ":370,"90":371,"80":372,"21":373,"Ġà¤¸":374,"77":375,"88":376,"99":377,"à¥§":378,"66":379,"70":380,"à¤¤à¤°":381,"89":382,"à¤ĺ":383,"32":384,"à¤¸à¤®":385,"42":386,"à¤Ľ":387,"à¤Łà¤°":388,"à¤ł":389,"Ġà¤ķ":390,"52":391,"à¥¦":392,"à¤ľà¤¨":393,"à¤°à¤ķ":394,"86":395,"31":396,"79":397,"Ġà¤ª":398,"41":399,"à¥§à¥":400,"51":401,"à¤ħà¤¨":402,"à¤¼à¤¾":403,"à¤¢":404,"âĢį":405,"à¤®à¤¨":406,"78":407,"98":408,"à¤¸à¤°":409,"76":410,"96":411,"à¤¶à¤¨":412,"à¤ķà¤²":413,"à¤¬à¤°":414,"à¤°à¤¸":415,"à¤¯à¤¨":416,"à¥¨":417,"à¤°à¤®":418,"à¥įâĢį":419,"à¤¯à¤°":420,"à¤¹à¤°":421,"à¤¾à¤ģ":422,"à¥Īà¤Ĥ":423,"à¤¦à¤°":424,"à¤®à¤¹":425,"à¤Ĺà¤°":426,"08":427,"à¤¸à¤¨":428,"06":429,"07":430,"09":431,"à¤µà¤¨":432,"à¤ħà¤²":433,"à¤ªà¤¤":434,"à¤®à¤ķ":435,"à¤ĩà¤¨":436,"Ġà¤®":437,"à¤°à¤£":438,"à¤ªà¤¨":439,"à¤°à¤¹":440,"à¤¼à¥Ģ":441,"à¤ıà¤¸":442,"à¤°à¤µ":443,"Ġà¤µ":444,"à¤¯à¤ķ":445,"à¤ıà¤ķ":446,"à¤Ŀ":447,"à¤ŀ":448,"à¤®à¤°":449,"à¤¾à¥¤":450,"à¤µà¤¸":451,"Ġà¤°":452,"à¤ħà¤°":453,"à¤Łà¤¨":454,"à¥©":455,"à¤²à¤¨":456,"à¤²à¤ķ":457,"à¤µà¤¤":458,"à¤¼à¤¿":459,"à¤ĳ":460,"âĢĺ":461,"er":462,"à¤¯à¤®":463,"à¤¬à¤²":464,"à¤Ĩà¤Ī":465,"à¤ķà¤¨":466,"à¤ļà¤¨":467,"à¤¯à¤¤":468,"à¥«":469,"63":470,"à¤¨à¤°":471,"à¥Ģà¤Ĥ":472,"à¤īà¤ª":473,"64":474,"à¤Ĩà¤°":475,"84":476,"à¤¾-":477,"à¤¬à¤¨":478,"74":479,"65":480,"73":481,"75":482,"85":483,"à¤ıà¤²":484,"83":485,"in":486,"94":487,"95":488,"à¤§à¤°":489,"à¤īà¤¤":490,"62":491,"93":492,"Ġà¤¨":493,"à¤¡à¤°":494,"à¥Ģ-":495,"à¥ģà¤Ĥ":496,"à¤ıà¤¨":497,"à¤¤à¤¨":498,"à¤®à¤²":499,"72":500,"à¥ª":501,"à¥Ń":502,"82":503,"à¥¬":504,"61":505,"à¤ķà¤°à¤£":506,"71":507,"à¤Ĺà¤¤":508,"à¤¼à¥ĩ":509,"à¤ħà¤§":510,"Ġà¤¦":511,"91":512,"âĢĻ":513,"81":514,"92":515,"à¤ľà¤°":516,"an":517,"à¤®à¤¤":518,"on":519,"Ġà¤¬":520,"Ġà¤¶":521,"à¤·à¤£":522,"100":523,"à¤¸à¤²":524,"à¤ľà¤²":525,"à¤ļà¤°":526,"à¤ĩà¤Ł":527,"120":528,"150":529,"200":530,"en":531,"à¤Ĭ":532,"à¤ĩà¤²":533,"ti":534,"à¤Ĺà¤²":535,"à¤ħà¤Ń":536,"à¥®":537,"130":538,"180":539,"160":540,"à¤ıà¤®":541,"190":542,"à¤ªà¤ķ":543,"140":544,"170":545,"à¥¯":546,"à¤ħà¤¸":547,"ar":548,"à¤¤à¤ķ":549,"à¤ĩà¤¡":550,"110":551,"à¤ķà¤¤":552,"à¤ħà¤®":553,"500":554,"à¤²à¤¯":555,"à¤¦à¤¨":556,"à¤²à¤¤":557,"à¥¦à¥¦":558,"119":559,"117":560,"228":561,"à¤¹à¤¨":562,"al":563,"à¤°à¤¨":564,"à¤ªà¤¦":565,"224":566,"227":567,"226":568,"113":569,"115":570,"116":571,"223":572,"225":573,"328":574,"à¤ĩà¤¸":575,"112":576,"114":577,"à¤¨à¤µ":578,"à¤Ĺà¤¨":579,"220":580,"229":581,"357":582,"359":583,"118":584,"216":585,"325":586,"334":587,"336":588,"338":589,"339":590,"354":591,"530":592,"à¤ħà¤ª":593,"214":594,"323":595,"324":596,"326":597,"329":598,"330":599,"337":600,"356":601,"à¤°à¤¦":602,"à¤ĩà¤ķ":603,"210":604,"217":605,"327":606,"358":607,"527":608,"538":609,"Ġà¤Ĺ":610,"à¤§à¤¨":611,"212":612,"213":613,"219":614,"440":615,"449":616,"525":617,"524":618,"529":619,"539":620,"559":621,"à¤ķà¤®":622,"218":623,"434":624,"438":625,"459":626,"454":627,"448":628,"523":629,"528":630,"526":631,"534":632,"536":633,"537":634,"557":635,"556":636,"554":637,"558":638,"215":639,"315":640,"320":641,"423":642,"425":643,"428":644,"424":645,"427":646,"429":647,"430":648,"437":649,"439":650,"446":651,"Ġà¤Ń":652,"à¤¡à¤²":653,"312":654,"313":655,"319":656,"314":657,"350":658,"426":659,"436":660,"457":661,"456":662,"458":663,"447":664,"à¥Ģà¥¤":665,"à¤µà¤²":666,"310":667,"520":668,"à¤®à¤¸":669,"318":670,"316":671,"317":672,"514":673,"517":674,"550":675,"à¤Ĳ":676,"à¤¸à¤ķ":677,"420":678,"450":679,"512":680,"515":681,"516":682,"es":683,"413":684,"414":685,"510":686,"513":687,"519":688,"518":689,"à¤µà¤ķ":690,"410":691,"412":692,"419":693,"418":694,"415":695,"416":696,"417":697,"à¤¸à¤¹":698,"à¤¬à¤¹":699,"à¥§à¥¯":700,"à¤¶à¤ķ":701,"Ġà¤ľ":702,"à¤¨à¤ķ":703,"à¤¸à¤¤":704,"à¤Īà¤¸":705,"à¤¯à¤²":706,"à¤¼à¥į":707,"240":708,"250":709,"à¤īà¤¦":710,"290":711,"à¤ħà¤µ":712,"187":713,"280":714,"270":715,"300":716,"à¤¤à¤®":717,"à¤ªà¤¹":718,"230":719,"à¤²à¤°":720,"107":721,"260":722,"108":723,"360":724,"129":725,"167":726,"380":727,"à¥°":728,"109":729,"139":730,"400":731,"à¤¦à¤ķ":732,"128":733,"137":734,"197":735,"157":736,"159":737,"149":738,"177":739,"340":740,"370":741,"390":742,"570":743,"560":744,"à¤²à¤µ":745,"127":746,"147":747,"148":748,"179":749,"590":750,"540":751,"580":752,"198":753,"169":754,"600":755,"or":756,"à¤°à¤ľ":757,"138":758,"199":759,"188":760,"178":761,"480":762,"à¤¨à¤¤":763,"à¤Łà¤²":764,"189":765,"158":766,"237":767,"000":768,"Ġà¤²":769,"168":770,"208":771,"à¤¯à¤¸":772,"207":773,"209":774,"239":775,"257":776,"247":777,"470":778,"490":779,"à¤²à¤®":780,"à¤®à¤¦":781,"106":782,"146":783,"287":784,"289":785,"267":786,"297":787,"460":788,"à¤Ķ":789,"126":790,"186":791,"249":792,"277":793,"279":794,"269":795,"à¥ħ":796,"156":797,"259":798,"268":799,"298":800,"299":801,"307":802,"597":803,"à¤®à¤§":804,"136":805,"176":806,"248":807,"387":808,"399":809,"577":810,"à¥ĩà¥¤":811,"238":812,"258":813,"288":814,"278":815,"367":816,"369":817,"599":818,"547":819,"à¤°à¤¶":820,"à¥ĩ-":821,"à¤ªà¤²":822,"à¤Łà¤ķ":823,"196":824,"166":825,"206":826,"507":827,"509":828,"347":829,"377":830,"379":831,"397":832,"567":833,"587":834,"589":835,"à¤ħà¤ķ":836,"309":837,"348":838,"349":839,"388":840,"389":841,"579":842,"569":843,"549":844,"à¤¨à¤¸":845,"368":846,"578":847,"568":848,"à¤ĥ":849,"256":850,"308":851,"508":852,"378":853,"398":854,"598":855,"548":856,"588":857,"286":858,"246":859,"296":860,"à¤¤à¤¤":861,"236":862,"489":863,"477":864,"499":865,"276":866,"266":867,"407":868,"408":869,"487":870,"497":871,"467":872,"409":873,"478":874,"479":875,"498":876,"468":877,"469":878,"à¤ķà¤Ł":879,"à¤ıà¤«":880,"306":881,"386":882,"586":883,"488":884,"à¤ħà¤Ĺ":885,"346":886,"366":887,"376":888,"396":889,"à¤¸à¤µ":890,"506":891,"576":892,"566":893,"596":894,"546":895,"à¤²à¤Ĺ":896,"is":897,"à¤¸à¤ª":898,"à¤¼à¥ĭ":899,"ic":900,"à¤¨à¤¨":901,"406":902,"Ġà¤¹":903,"à¤°à¤Ń":904,"à¤ļà¤ķ":905,"486":906,"à¤īà¤¨":907,"à¤°à¤ª":908,"à¤°à¤¬":909,"à¤¤à¤²":910,"476":911,"496":912,"466":913,"606":914,"à¤ħà¤¤":915,"à¤«à¤°":916,"à¤Łà¤®":917,"à¤¹à¤²":918,"à¤ļà¤²":919,"à¤ľà¤¯":920,"à¤¬à¤¦":921,"Ġà¤Ł":922,"à¤¨à¤²":923,"à¤Ĩà¤¤":924,"at":925,"Ġà¤¯":926,"à¤¯à¤µ":927,"à¤Ĺà¤¢":928,"à¤¹à¤®":929,"as":930,"355":931,"à¤°à¤¯":932,"à¤¶à¤°":933,"à¤ľà¤®":934,"à¥§à¥®":935,"it":936,"ol":937,"à¤ıà¤¡":938,"à¤Ĩà¤¯":939,"à¤ķà¤¸":940,"à¤ĸà¤°":941,"533":942,"à¤ªà¤¶":943,"433":944,"455":945,"à¤ªà¤Ł":946,"à¤Ĺà¤®":947,"à¤ĸà¤¨":948,"à¤¤à¤µ":949,"à¤ĩà¤®":950,"535":951,"à¤¨à¤®":952,"à¤µà¤µ":953,"à¤Ĺà¤£":954,"à¤Ĩà¤¨":955,"03":956,"le":957,"om":958,"à¤°à¤²":959,"à¤Ĩà¤¦":960,"02":961,"05":962,"435":963,"Ġà¤ªà¤°":964,"à¤¿-":965,"à¤¹à¤¤":966,"à¥Ĥà¤Ĥ":967,"04":968,"à¤ªà¤¡":969,"à¤ĩà¤ľ":970,"à¤ķà¤¡":971,"à¤¸à¤¬":972,"à¤·à¤ķ":973,"01":974,"à¤¡à¤¨":975,"à¤Ĩà¤ķ":976,"Ġà¤ļ":977,"Ġà¤Īà¤¸":978,"à¤°à¤Ĺ":979,"à¤¸à¤¦":980,"à¤Ĺà¤µ":981,"us":982,"à¤¹à¤¸":983,"à¤ĺà¤°":984,"ch":985,"ra":986,"à¤®à¤¯":987,"à¤Ĩà¤§":988,"ed":989,"Ġà¤¤":990,"Ġà¤ħ":991,"à¤Ĩà¤µ":992,"103":993,"123":994,"à¤ıà¤ļ":995,"et":996,"Ġà¤ĸ":997,"101":998,"125":999,"à¤§à¤ķ":1000,"à¤ļà¤¤":1001,"104":1002,"105":1003,"ing":1004,"à¤ķà¤µ":1005,"à¤¬à¤¸":1006,"133":1007,"155":1008,"145":1009,"à¤ķà¤ª":1010,"102":1011,"135":1012,"195":1013,"152":1014,"143":1015,"à¤¥à¤²":1016,"607":1017,"à¤°à¤¥":1018,"à¤ķà¤¹":1019,"134":1020,"153":1021,"144":1022,"164":1023,"165":1024,"172":1025,"tion":1026,"à¤®à¤£":1027,"à¤¬à¤¤":1028,"122":1029,"124":1030,"185":1031,"162":1032,"163":1033,"173":1034,"175":1035,"ro":1036,"à¤²à¤¸":1037,"à¤µà¤ľ":1038,"à¤¯à¤ª":1039,"à¤¦à¤®":1040,"121":1041,"132":1042,"194":1043,"183":1044,"154":1045,"142":1046,"el":1047,"Ġà¤«":1048,"Ġà¤ĩ":1049,"à¤°à¤ĸ":1050,"à¤¸à¤«":1051,"à¤®à¤ľ":1052,"131":1053,"192":1054,"184":1055,"174":1056,"234":1057,"295":1058,"111":1059,"à¥¨à¥¦":1060,"à¤¬à¤¡":1061,"193":1062,"181":1063,"141":1064,"161":1065,"à¤Ńà¤µ":1066,"âĢĵ":1067,"Ġà¤¡":1068,"à¤¾à¥ħ":1069,"à¤ªà¤¸":1070,"à¤¯à¤µà¤¸":1071,"à¤¦à¤²":1072,"à¤¬à¤¢":1073,"182":1074,"151":1075,"254":1076,"à¤ķà¤¥":1077,"à¤ªà¤£":1078,"à¥ĭ-":1079,"à¤ľà¤µ":1080,"à¤¡à¤¬":1081,"201":1082,"205":1083,"232":1084,"233":1085,"245":1086,"263":1087,"264":1088,"à¤īà¤²":1089,"à¤ĭ":1090,"191":1091,"171":1092,"204":1093,"235":1094,"252":1095,"283":1096,"ur":1097,"à¤ķà¤¬":1098,"à¤²à¤¡":1099,"203":1100,"253":1101,"255":1102,"273":1103,"274":1104,"275":1105,"261":1106,"262":1107,"265":1108,"294":1109,"Ġà¤¸à¤®":1110,"à¤¶à¤²":1111,"282":1112,"284":1113,"285":1114,"242":1115,"243":1116,"244":1117,"293":1118,"à¤«à¤²":1119,"à¤īà¤¸":1120,"222":1121,"à¤ªà¤°à¤®":1122,"à¤¯à¤£":1123,"à¤¼à¥ĭà¤Ĥ":1124,"202":1125,"281":1126,"271":1127,"272":1128,"292":1129,"375":1130,"à¤ĩà¤°":1131,"à¤īà¤ļ":1132,"à¥§à¥«":1133,"à¤²à¤¬":1134,"231":1135,"303":1136,"304":1137,"305":1138,"564":1139,"583":1140,"à¤ĩà¤¯":1141,"221":1142,"st":1143,"à¤¨à¤¦":1144,"à¤ľà¤Ĺ":1145,"à¤¹à¤µ":1146,"à¤ħà¤¶":1147,"251":1148,"241":1149,"291":1150,"503":1151,"343":1152,"345":1153,"364":1154,"365":1155,"372":1156,"374":1157,"383":1158,"384":1159,"385":1160,"394":1161,"573":1162,"565":1163,"543":1164,"à¤Ńà¤ķ":1165,"353":1166,"Ġà¤¨à¤¦":1167,"th":1168,"à¤°à¤§":1169,"à¤¯à¤¦":1170,"à¤ľà¤ķ":1171,"à¤ħà¤¬":1172,"à¤ħà¤«":1173,"à¤ıà¤°":1174,"302":1175,"504":1176,"505":1177,"344":1178,"363":1179,"373":1180,"393":1181,"395":1182,"574":1183,"575":1184,"563":1185,"593":1186,"594":1187,"595":1188,"544":1189,"545":1190,"584":1191,"585":1192,"333":1193,"335":1194,"à¥Įà¤Ĥ":1195,"à¥§à¥¬":1196,"il":1197,"à¤Ĺà¤¡":1198,"à¤ħà¤ľ":1199,"à¤§à¤¤":1200,"502":1201,"342":1202,"362":1203,"371":1204,"381":1205,"382":1206,"392":1207,"572":1208,"562":1209,"592":1210,"542":1211,"à¥§à¥¨":1212,"à¤ĳà¤«":1213,"am":1214,"à¤°à¤ļ":1215,"à¤¨à¤ľ":1216,"à¤¶à¤µ":1217,"à¤·à¤¤":1218,"301":1219,"501":1220,"à¤Ńà¤°":1221,"582":1222,"553":1223,"555":1224,"352":1225,"à¤¶à¤¬":1226,"341":1227,"361":1228,"391":1229,"571":1230,"561":1231,"591":1232,"541":1233,"581":1234,"à¤ĩà¤µ":1235,"à¤¥à¤°":1236,"à¤ĸà¤²":1237,"à¤īà¤¡":1238,"331":1239,"332":1240,"552":1241,"um":1242,"Ġà¤Ĩ":1243,"à¤°à¤ļà¤¨":1244,"à¤¨à¤Ĺà¤°":1245,"à¤µà¤ª":1246,"à¤µà¤¹":1247,"à¤Łà¤¸":1248,"à¤ľà¤¸":1249,"à¤¼à¥ģ":1250,"405":1251,"473":1252,"465":1253,"351":1254,"à¥§à¥Ń":1255,"ac":1256,"ad":1257,"à¤¨à¤ª":1258,"à¤¨à¤¹":1259,"à¤¡à¤ķ":1260,"à¤¶à¤®":1261,"à¤ĩà¤¬":1262,"484":1263,"493":1264,"494":1265,"463":1266,"604":1267,"à¤īà¤°":1268,"551":1269,"532":1270,"à¤Ķà¤°":1271,"à¤¯à¤ľ":1272,"à¤¦à¤¸":1273,"à¤¹à¤ľ":1274,"à¥Ĥà¤ģ":1275,"403":1276,"404":1277,"483":1278,"485":1279,"472":1280,"474":1281,"475":1282,"495":1283,"464":1284,"605":1285,"443":1286,"444":1287,"445":1288,"âĢĮ":1289,"453":1290,"re":1291,"Ġà¤ı":1292,"à¤¤à¤ª":1293,"à¤¬à¤ķ":1294,"492":1295,"603":1296,"442":1297,"âĢĭ":1298,"à¤ĵà¤°":1299,"531":1300,"à¤µà¤¶":1301,"à¤Łà¤¤":1302,"à¤ļà¤®":1303,"à¥Ĥ-":1304,"402":1305,"481":1306,"482":1307,"471":1308,"491":1309,"461":1310,"462":1311,"452":1312,"683":1313,"431":1314,"432":1315,"ent":1316,"à¤®à¤µ":1317,"à¤®à¤¶":1318,"à¤¹à¤ķ":1319,"à¤¶à¤¤":1320,"à¤ıà¤Ĺ":1321,"401":1322,"602":1323,"441":1324,"001":1325,"451":1326,"à¥ĥà¤Ĥ":1327,"682":1328,"684":1329,"687":1330,"693":1331,"694":1332,"698":1333,"670":1334,"674":1335,"873":1336,"à¥§à¥¦":1337,"à¥¦à¥¦à¥¦":1338,"à¤ªà¤¢":1339,"à¤¦à¤µ":1340,"à¤¡à¤µ":1341,"à¤Ĩà¤¸":1342,"à¤Ĩà¤²":1343,"601":1344,"608":1345,"609":1346,"680":1347,"681":1348,"685":1349,"686":1350,"688":1351,"689":1352,"690":1353,"691":1354,"692":1355,"695":1356,"696":1357,"697":1358,"699":1359,"671":1360,"672":1361,"673":1362,"675":1363,"676":1364,"677":1365,"678":1366,"679":1367,"874":1368,"875":1369,"978":1370,"802":1371,"804":1372,"808":1373,"661":1374,"662":1375,"ation":1376,"ul":1377,"à¤®à¤Ĺ":1378,"à¤¯à¤¶":1379,"à¤¡à¤¸":1380,"à¤Ĩà¤¶":1381,"003":1382,"871":1383,"872":1384,"972":1385,"973":1386,"977":1387,"901":1388,"903":1389,"904":1390,"906":1391,"908":1392,"805":1393,"663":1394,"664":1395,"665":1396,"666":1397,"à¥§à¥©":1398,"ag":1399,"ter":1400,"à¤ķà¤¶":1401,"à¥Ģà¥°":1402,"à¥ģà¤ģ":1403,"à¤ĩà¤ª":1404,"002":1405,"004":1406,"005":1407,"006":1408,"007":1409,"008":1410,"009":1411,"870":1412,"876":1413,"877":1414,"878":1415,"879":1416,"970":1417,"971":1418,"974":1419,"975":1420,"976":1421,"979":1422,"902":1423,"905":1424,"907":1425,"909":1426,"801":1427,"803":1428,"806":1429,"807":1430,"809":1431,"881":1432,"888":1433,"995":1434,"998":1435,"704":1436,"709":1437,"894":1438,"898":1439,"864":1440,"à¥įâĢĮ":1441,"à¤ªà¤ļ":1442,"à¤¦à¤¯":1443,"à¤Ĺà¤¦":1444,"à¤¥à¤¨":1445,"770":1446,"882":1447,"883":1448,"884":1449,"885":1450,"886":1451,"889":1452,"991":1453,"992":1454,"993":1455,"994":1456,"996":1457,"999":1458,"702":1459,"706":1460,"707":1461,"708":1462,"891":1463,"892":1464,"893":1465,"895":1466,"896":1467,"861":1468,"862":1469,"863":1470,"865":1471,"à¤®à¤¹à¤¤":1472,"063":1473,"à¤¸à¤Ł":1474,"à¤¸à¤ľ":1475,"à¤®à¤ļ":1476,"à¤¯à¤¹":1477,"à¤Łà¤µ":1478,"à¤ħà¤¦":1479,"à¤§à¤µ":1480,"à¤ıà¤ª":1481,"à¤ıà¤Ł":1482,"à¤ĩà¤¤":1483,"à¤¥à¤®":1484,"à¤īà¤ł":1485,"à¤ĵà¤²":1486,"771":1487,"774":1488,"776":1489,"777":1490,"778":1491,"701":1492,"703":1493,"705":1494,"à¤Ľà¤¤":1495,"781":1496,"782":1497,"783":1498,"983":1499,"762":1500,"764":1501,"964":1502,"à¤°à¤®à¤£":1503,"Ġà¤®à¤¹":1504,"à¤°à¤¦à¤°":1505,"à¤¸à¤¸":1506,"à¥ģ-":1507,"à¤ľà¤¤":1508,"à¤ħà¤¹":1509,"à¤ħà¤ªà¤°":1510,"à¤¥à¤µ":1511,"à¤īà¤®":1512,"à¤īà¤ªà¤¨":1513,"772":1514,"773":1515,"775":1516,"779":1517,"791":1518,"792":1519,"793":1520,"794":1521,"795":1522,"796":1523,"798":1524,"784":1525,"785":1526,"981":1527,"982":1528,"984":1529,"985":1530,"761":1531,"763":1532,"765":1533,"961":1534,"962":1535,"963":1536,"965":1537,"081":1538,"082":1539,"083":1540,"084":1541,"085":1542,"061":1543,"062":1544,"064":1545,"065":1546,"071":1547,"072":1548,"073":1549,"074":1550,"075":1551,"091":1552,"092":1553,"093":1554,"094":1555,"095":1556,"ri":1557,"un":1558,"à¤Ĺà¤ľ":1559,"à¤¬à¤ļ":1560,"à¤¦à¤¶":1561,"à¤ıà¤ľ":1562,"à¤Ĩà¤ª":1563,"à¤¥à¤ķ":1564,"à¤Īà¤Ł":1565,"Ġà¤¶à¤¤":1566,"og":1567,"os":1568,"à¤¨à¤¯":1569,"à¤¤à¤¸":1570,"à¤²à¤ķà¤°":1571,"à¤ľà¤ª":1572,"à¤ħà¤ªà¤¨":1573,"à¤ıà¤µ":1574,"à¤µà¤°à¤£":1575,"à¤¤à¤°à¤£":1576,"op":1577,"Ġà¤ľà¤¨":1578,"à¤ķà¤ķ":1579,"à¤²à¤Ń":1580,"à¤®à¤ª":1581,"à¤¬à¤Ł":1582,"à¤¬à¤ľ":1583,"à¤Ĩà¤®":1584,"à¤ĸà¤¤":1585,"à¥ĩà¤Ĥà¥¤":1586,"à¤¸à¤®à¤Ŀ":1587,"tic":1588,"di":1589,"ec":1590,"à¤°à¤µà¤°":1591,"à¤°à¤ªà¤¤":1592,"à¤Ĺà¤¸":1593,"à¤¶à¤¯":1594,"à¤ļà¤¢":1595,"à¤ħà¤®à¤°":1596,"à¤¼à¥Ī":1597,"à¤ıà¤¯à¤°":1598,"à¤·à¤¦":1599,"à¤ĸà¤£":1600,"à¤īà¤ľ":1601,"à¤¸à¤®à¤°":1602,"à¥¨à¥Ń":1603,"à¤ĳà¤ķ":1604,"à®":1605,"à¤Ļ":1606,"à¤°à¤°":1607,"à¤µà¤¯":1608,"à¤¦à¤¬":1609,"à¤¹à¤¡":1610,"à¤Ĩà¤ĩ":1611,"à¥§à¥ª":1612,"Ġà¤ħà¤²":1613,"à¤®à¤®":1614,"à¤µà¤®":1615,"à¤Łà¤ķà¤°":1616,"à¤¦à¤¤":1617,"à¤¡à¤®":1618,"à¤Ńà¤Ł":1619,"à¤Ńà¤Ĺà¤µ":1620,"à¤Ĩà¤ľ":1621,"à¤ĺà¤Łà¤¨":1622,"à¥«à¥¦":1623,"ine":1624,"de":1625,"ia":1626,"ut":1627,"Ġà¤µà¤°":1628,"à¤°à¤«":1629,"à¤²à¤ļ":1630,"à¤ªà¤µ":1631,"à¤Ĺà¤ł":1632,"à¤ľà¤¡":1633,"à¤¼à¥ī":1634,"à¤Ńà¤Ĺ":1635,"à¤Īà¤¯":1636,"em":1637,"im":1638,"Â°":1639,"Ġà¤ħà¤§":1640,"à¤¨à¤¶":1641,"à¤¸à¤ļ":1642,"à¤²à¤¦":1643,"à¤Łà¤¬":1644,"à¤¦à¤Ĺ":1645,"à¤¹à¤¦":1646,"à¤·à¤®":1647,"à¤£à¤ķ":1648,"à¥¨à¥©":1649,"à¥¨à¥«":1650,"à¥¨à¥ª":1651,"à¤ĳà¤¸":1652,"ir":1653,"à¤¨à¤ķà¤°":1654,"à¤¸à¤Ń":1655,"à¤µà¤¦":1656,"à¤¬à¤®":1657,"à¤ļà¤°à¤£":1658,"à¤¼à¥Ĥ":1659,"à¤·à¤°":1660,"à¤ľà¤¨à¤¸":1661,"à¤°à¤¥à¤®":1662,"ver":1663,"Ġà¤§à¤°":1664,"Ġà¤ħà¤®":1665,"Ġà¤ĳà¤«":1666,"à¤ķà¤£":1667,"à¤²à¤ľ":1668,"à¤µà¤Ł":1669,"à¤µà¤§":1670,"à¤ªà¤®":1671,"à¤¯à¤¥":1672,"à¤¦à¤ª":1673,"à¤ļà¤¯":1674,"à¤¼-":1675,"à¤§à¤®":1676,"à¤ªà¤°à¤ķ":1677,"à¤ĵà¤¸":1678,"à¤Ľà¤²":1679,"Ġà¤ªà¤¤":1680,"à¤ħà¤°à¤¬":1681,"à¥Ģà¤Ĥà¥¤":1682,"à¤Ĭà¤°":1683,"à¤ħà¤Ĺà¤¸":1684,"322":1685,"422":1686,"ab":1687,"com":1688,"ow":1689,"à¤¨à¤Ĺ":1690,"à¤¨à¤¬":1691,"à¤¸à¤Ĺ":1692,"à¤¸à¤¡":1693,"à¤ªà¤¯":1694,"à¤Ĺà¤¯":1695,"à¤ľà¤¹":1696,"à¤¹à¤¬":1697,"âĢĿ":1698,"à¤ĺà¤¨":1699,"à¤ľà¤¨à¤ķ":1700,"à¤ĳà¤°":1701,"à¤Ĩà¤Īà¤¸":1702,"522":1703,"Ch":1704,"li":1705,"ub":1706,"à¤¿âĢį":1707,"à¥ĢâĢĻ":1708,"à¤¬à¤Ĺ":1709,"à¤¹à¤Ł":1710,"à¤¶à¤ª":1711,"à¤ħà¤ļ":1712,"à¤ıà¤¶":1713,"à¤«à¤¨":1714,"à¤·à¤¯":1715,"à¤Ĩà¤Ĺ":1716,"à¤Ĩà¤ī":1717,"à¤ķà¤°à¤¨":1718,"à¤ĵà¤¡":1719,"à¥§à¥§":1720,"à¥¨à¥¬":1721,"à¥¨à¥¦à¥¦":1722,"and":1723,"id":1724,"la":1725,"ob":1726,"Ġà¤®à¤¨":1727,"Ġà¤¦à¤°":1728,"Ġà¤Ķà¤°":1729,"à¤³":1730,"à¤į":1731,"à¥¥":1732,"à¤¨à¤Ł":1733,"à¤¤à¤¬":1734,"à¤²à¤²":1735,"à¤²à¤ª":1736,"à¤Ĺà¤ª":1737,"à¤ľà¤¬":1738,"à¤ħà¤µà¤¸":1739,"Ġà¤¸à¤°à¤ķ":1740,"à¤ĺà¤Ł":1741,"à¥¨à¥¯":1742,"à¤¸à¤²à¤®":1743,"In":1744,"ak":1745,"ht":1746,"Ġà¤ıà¤ķ":1747,"à¤¾âĢĻ":1748,"à¤µà¤ļ":1749,"à¤¯à¤¬":1750,"à¤Ĺà¤¶":1751,"à¤¶à¤¸":1752,"à¤ħà¤¯":1753,"à¤Ńà¤°à¤¤":1754,"à¤£à¤¨":1755,"à¤ĩà¤ļ":1756,"à¤ĸà¤¦":1757,"à¤Īà¤²":1758,"à¤ķà¤°à¤¤":1759,"à¤Ľà¤¨":1760,"à¤ĭà¤·":1761,"IS":1762,"ce":1763,"âĤ":1764,"Ġà¤§":1765,"Ġà¤Ĩà¤¯":1766,"à¤¿à¥¤":1767,"à¤¤à¤ľ":1768,"à¤ħà¤Ł":1769,"à¤ħà¤·":1770,"à¤ħà¤ĸ":1771,"à¤£à¤¤":1772,"à¤īà¤·":1773,"à¤ķà¤°à¤µ":1774,"âĢĶ":1775,"à¤ĵà¤®":1776,"à¤Łà¤°à¤¨":1777,"Ġà¤ķà¤ª":1778,"à¤¶à¤¨à¤²":1779,"à¥¬à¥¦":1780,"à¤Ĳà¤²":1781,"à¤¸à¤¹à¤¸":1782,"à¤¯à¤µà¤¹":1783,"'à¥¤":1784,"ay":1785,"ran":1786,"si":1787,"ww":1788,"Ø§":1789,"à¤¨à¤ļ":1790,"à¤ķà¤ļ":1791,"à¤¸à¤°à¤ķ":1792,"à¤µà¤Ń":1793,"à¤ªà¤¥":1794,"à¤ħà¤¡":1795,"à¤ħà¤¸à¤®":1796,"à¤·à¤®à¤¤":1797,"à¤ĩà¤¶":1798,"à¤ĩà¤«":1799,"à¤Īà¤°":1800,"à¤ĵà¤µà¤°":1801,"à¤®à¤ķà¤¤":1802,"à¤ĩà¤¨à¤°":1803,"à¤°à¤¹à¤µ":1804,"à¤īà¤ªà¤¯":1805,"à¤ªà¤¹à¤²":1806,"ist":1807,"âĤ¹":1808,"hy":1809,"te":1810,"uc":1811,"Ġà¤ĺ":1812,"à¤°à¤ľà¤¨":1813,"à¤ķà¤ł":1814,"à¥Ģ.":1815,"à¥Ģ/":1816,"à¤µà¤¡":1817,"à¤ªà¤¬":1818,"à¤¯à¤¯":1819,"à¤¯à¤Ł":1820,"à¤¯à¤ļ":1821,"à¤¯à¤Ń":1822,"à¤Łà¤µà¤°":1823,"à¤ħà¤£":1824,"à¤ıà¤¬":1825,"à¤«à¤¤":1826,"à¤·à¤§":1827,"à¤£à¤µ":1828,"à¤Ĩà¤ļ":1829,"à¤īà¤Ĺ":1830,"à¤ĵà¤¨":1831,"à¥©à¥¦":1832,"à¤ĳà¤Ł":1833,"à¤īà¤ªà¤Ń":1834,"ind":1835,"à¥ªà¥Ń":1836,"à¥®à¥©":1837,"à¤ħà¤µà¤§":1838,"à¤ĭà¤¤":1839,"âĢĭâĢĭ":1840,"Al":1841,"An":1842,"ma":1843,"ment":1844,"oc":1845,"ta":1846,"ÙĦ":1847,"à¤¨à¤Ī":1848,"à¤ķà¤¦":1849,"à¤ķà¤Ĺ":1850,"à¤ķà¤Ń":1851,"à¤µà¤Ĺ":1852,"à¤µà¤¸à¤¨":1853,"à¤¯à¤¡":1854,"à¤Łà¤«":1855,"à¤ľà¤¦":1856,"à¤¶à¤¹":1857,"à¤¼à¥ĩà¤Ĥ":1858,"à¤Ĩà¤¦à¤°":1859,"à¤ĸà¤¡":1860,"Ġà¤¸à¤Ń":1861,"à¤¸à¤®à¤¸":1862,"à¤¸à¤®à¤¯":1863,"à¥¨à¥¨":1864,"à¤ıà¤¸à¤¸":1865,"à¥©à¥«":1866,"à¤ĳà¤²":1867,"âĢĺâĢĺ":1868,"à¤Ĩà¤Īà¤Ł":1869,"à¥¬à¥«":1870,"à¤Ĭà¤·":1871,"ate":1872,"ET":1873,"for":1874,"pp":1875,"ric":1876,"sc":1877,"Ġà¤ħà¤¨":1878,"Ġà¤ħà¤ķ":1879,"à¤¤à¤¹":1880,"à¤¤à¤ķà¤°":1881,"à¤µà¤£":1882,"à¤µà¤ľà¤¨":1883,"à¥ĭà¥¤":1884,"à¤¡à¤ª":1885,"à¤¡à¤¬à¤²":1886,"à¤Ńà¤¦":1887,"à¤īà¤Ń":1888,"à¤Īà¤¶":1889,"à¤ĵà¤ķ":1890,"à¤łà¤¹à¤°":1891,"à¤ħà¤²à¤Ĺ":1892,"Ġà¤®à¤Ī":1893,"à¤°à¤¹à¤£":1894,"à¤ľà¤²à¤µ":1895,"à¤Ĳà¤¸":1896,"à¥§à¥¯à¥«":1897,"Ġà¤ľà¤¨à¤µà¤°":1898,"à¤Ĩà¤īà¤Ł":1899,"--":1900,"AS":1901,"En":1902,"ID":1903,"II":1904,"ha":1905,"he":1906,"qu":1907,"ry":1908,"sp":1909,"ve":1910,"à¤¸à¤ĸ":1911,"à¤¤à¤ļ":1912,"à¤¤à¤¥":1913,"à¤²à¤ĺ":1914,"à¤®à¤¡":1915,"à¤Ĥà¥¤":1916,"à¤µà¤ļà¤¨":1917,"à¤¯à¤¯à¤¨":1918,"à¤Ĺà¤ķ":1919,"à¥ģ:":1920,"à¤¬à¤Ī":1921,"à¤¹à¤¯":1922,"à¤¹à¤¥":1923,"à¤ħà¤µà¤°":1924,"à¤¼à¥Į":1925,"à¤§à¤ª":1926,"à¤ĩà¤Ĺ":1927,"à¤Ĩà¤¬":1928,"à¤Ĩà¤Ń":1929,"à¤ĸà¤ķ":1930,"à¤īà¤¤à¤°":1931,"à¤Īà¤ª":1932,"à¤ĵà¤Ł":1933,"Ġà¤¸à¤°":1934,"à¤Ľà¤¡":1935,"à¤łà¤µ":1936,"à¤ķà¤²à¤¨":1937,"à¤°à¤¹à¤®":1938,"à¥©à¥Ń":1939,"ant":1940,"Ġà¤¶à¤°":1941,"est":1942,"à¤ħà¤µà¤¶":1943,"à¤Ķà¤¦":1944,"olog":1945,"Ġà¤ĩà¤¤":1946,"ill":1947,"211":1948,"521":1949,"AC":1950,"NH":1951,"con":1952,"oo":1953,"ou":1954,"ru":1955,"Ġà¤ħà¤Ĺà¤¸":1956,"à¤°à¤ĺ":1957,"à¤ķà¤ľ":1958,"à¤®à¤Ł":1959,"à¤®à¤¬":1960,"à¤®à¤°à¤£":1961,"à¤ªà¤·":1962,"à¤¯à¤°à¤¸":1963,"à¤Łà¤Ĺ":1964,"à¤Ĺà¤¬":1965,"à¤Ĺà¤®à¤¨":1966,"à¤¹à¤®à¤¦":1967,"à¥Ī-":1968,"à¤ıà¤ķà¤²":1969,"à¤£à¤ª":1970,"à¤ĩà¤£":1971,"à¤Ĩà¤ĸ":1972,"à¤¥à¤¸":1973,"à¤īà¤ķ":1974,"à¤Īà¤ķ":1975,"à¤Īà¤µ":1976,"âĢ¢":1977,"à¤ĵà¤¬":1978,"à¤łà¤¨":1979,"Ġà¤ķà¤²":1980,"à¥¨à¥®":1981,"à¤¹à¤°à¤£":1982,"à¥©à¥ª":1983,"à¤Ĩà¤Īà¤ıà¤¸":1984,"ess":1985,"à¥§à¥¯à¥Ń":1986,"à¤ªà¤¹à¤ļ":1987,"à¤Ĺà¤łà¤¨":1988,"511":1989,"AT":1990,"CD":1991,"MP":1992,"ae":1993,"gl":1994,"ig":1995,"ian":1996,"à¤°à¤ķà¤°":1997,"à¤¨à¤¡":1998,"à¤¨à¤µà¤°":1999,"à¤ķà¤®à¤²":2000,"à¤¤à¤ĸ":2001,"à¤²à¤«":2002,"à¤²à¤¹à¤°":2003,"à¤µà¤¹à¤¨":2004,"à¤¯à¤ķà¤°":2005,"à¤ľà¤¶":2006,"à¤ļà¤µ":2007,"à¤ļà¤²à¤¨":2008,"à¥ĭà¤Ĥ-":2009,"à¤ıà¤¶à¤¨":2010,"à¤·à¤¡":2011,"à¤ĩà¤¥":2012,"à¤ĩà¤¡à¤°":2013,"à¤ĩà¤ľà¤°":2014,"à¤¥à¤¤":2015,"à¤ĸà¤Ĺ":2016,"à¤ªà¤°à¤¸":2017,"0000":2018,"à¤ĵà¤ª":2019,"à¤¤à¤°à¤°":2020,"à¤Ľà¤µ":2021,"à¤Łà¤°à¤¸":2022,"à¤µà¤¨à¤¸":2023,"à¤°à¤¹à¤¨":2024,"à¤°à¤¹à¤¸":2025,"à¥©à¥¯":2026,"à¤īà¤ªà¤ľ":2027,"à¤ıà¤¨à¤¸":2028,"à¥ªà¥«":2029,"à¥ªà¥ª":2030,"à¤ªà¤ķà¤¡":2031,"à¤Ĳà¤¨":2032,"à¤Ĳà¤ķ":2033,"à¥§à¥¯à¥®":2034,"Ġà¤ħà¤«":2035,"//":2036,"311":2037,"321":2038,"411":2039,"421":2040,"://":2041,"CS":2042,"St":2043,"US":2044,"ah":2045,"ati":2046,"ge":2047,"her":2048,"ies":2049,"ov":2050,"ost":2051,"per":2052,"tp":2053,"tra":2054,"ym":2055,"Ã©":2056,"Ġà¤ıà¤¸":2057,"Ġà¤ħà¤ª":2058,"à¤°à¤Ł":2059,"à¤°à¤¬à¤¨":2060,"à¤¨à¤«":2061,"à¤ķà¤·":2062,"à¤ķà¤µà¤°":2063,"à¤ķà¤¹à¤²":2064,"à¤¤à¤¯":2065,"à¤¤à¤¦":2066,"à¤®à¤ł":2067,"à¤®à¤Ľà¤²":2068,"à¤ªà¤¹à¤¨":2069,"à¤Łà¤ª":2070,"à¤Ĺà¤¹à¤°":2071,"à¤ľà¤Ĺà¤¤":2072,"à¤¬à¤µ":2073,"à¤¬à¤ĸ":2074,"à¤¹à¤ª":2075,"à¤¶à¤°à¤£":2076,"à¥Ī,":2077,"à¤ıà¤ı":2078,"à¤Ńà¤²":2079,"à¤Ńà¤¡":2080,"à¤£à¤¯":2081,"à¤Ĩà¤¹":2082,"à¤Ĩà¤¨à¤¨":2083,"à¤īà¤¥":2084,"à¤Īà¤¨":2085,"à¤Īà¤®":2086,"à¤łà¤ķ":2087,"à¤¼à¤¾à¥¤":2088,"à¤¸à¤°à¤¸":2089,"à¥¨à¥§":2090,"à¤ıà¤¸à¤Ĩà¤Ī":2091,"à¥©à¥¨":2092,"à¤ĳà¤¨":2093,"à¤ĳà¤ªà¤°":2094,"à¤Ĩà¤Īà¤¡":2095,"à¤īà¤ªà¤¸":2096,"à¤īà¤ªà¤¦":2097,"à¥ªà¥¦":2098,"à¥¯à¥¯":2099,"ard":2100,"à¤ıà¤«à¤¸":2101,"à¤«à¤°à¤µà¤°":2102,"à¤ıà¤¡à¤®":2103,"ell":2104,"à¤ĭà¤£":2105,"http":2106,"OS":2107,"der":2108,"ev":2109,"ex":2110,"ear":2111,"ele":2112,"gen":2113,"han":2114,"ip":2115,"ial":2116,"las":2117,"ne":2118,"ot":2119,"ph":2120,"pr":2121,"ron":2122,"sis":2123,"à¯":2124,"Ġà¤Ŀ":2125,"Ġà¤ħà¤°":2126,"Ġà¤¬à¤²":2127,"Ġà¤ħà¤Ń":2128,"à¤¾/":2129,"à¤°à¤·":2130,"à¤°à¤®à¤¨":2131,"à¤ķà¤¦à¤®":2132,"à¤¤à¤²à¤µ":2133,"à¤²à¤Ł":2134,"à¤²à¤¹":2135,"à¤²à¤¬à¤°":2136,"à¤®à¤¹à¤°":2137,"à¤ªà¤Łà¤²":2138,"à¤¯à¤Ĺ":2139,"à¤Łà¤¡":2140,"à¤Ĺà¤ķà¤°":2141,"à¤Ĺà¤°à¤®":2142,"à¤Ĺà¤Łà¤¨":2143,"à¤ľà¤¯à¤¨":2144,"à¤¬à¤¹à¤°":2145,"à¤¶à¤¦":2146,"à¤¶à¤¹à¤°":2147,"à¤ļà¤Ł":2148,"à¥Īà¥¤":2149,"à¤·à¤ľ":2150,"à¤Ńà¤µà¤¨":2151,"à¤£à¤¸":2152,"à¤£à¤®":2153,"à¤ĩà¤µà¤°":2154,"à¤Ĩà¤¡":2155,"à¤ĸà¤Ł":2156,"à¤īà¤¬":2157,"à¤īà¤ªà¤°":2158,"à¤ªà¤°à¤µ":2159,"à¤¤à¤°à¤ķ":2160,"à¤Łà¤°à¤ª":2161,"à¤¦à¤°à¤¬":2162,"à¤ĩà¤¨à¤¸":2163,"à¤ĩà¤¨à¤²":2164,"à¥©à¥§":2165,"à¤ĳà¤ª":2166,"à¤Ĩà¤Īà¤ª":2167,"à¤¯à¤¤à¤¨":2168,"int":2169,"à¥Ńà¥¦":2170,"à¥¬à¥Ń":2171,"2002":2172,"à¥®à¥¦":2173,"à¤ıà¤®à¤¸":2174,"all":2175,"à¥§à¥¯à¥¦":2176,"ical":2177,"à¤¬à¤¦à¤²":2178,"ata":2179,"à¥§à¥®à¥«":2180,"ity":2181,"ram":2182,"Ġà¤ħà¤¹à¤®à¤¦":2183,"Ġà¤ıà¤¶":2184,"age":2185,"à¤ħà¤¹à¤®à¤¦":2186,"'s":2187,"Ar":2188,"Com":2189,"IC":2190,"IT":2191,"LA":2192,"Mar":2193,"NA":2194,"ap":2195,"au":2196,"cl":2197,"co":2198,"eb":2199,"ib":2200,"od":2201,"ous":2202,"pt":2203,"pro":2204,"ss":2205,"ya":2206,"Ø³":2207,"ÙĨ":2208,"àª":2209,"Ġà¤ĵ":2210,"Ġà¤īà¤¦":2211,"à¤¾,":2212,"à¤°à¤¡":2213,"à¤¨à¤¬à¤°":2214,"à¤¨à¤ľà¤°":2215,"à¤¸à¤¯":2216,"à¤¸à¤ķà¤°":2217,"à¤¤à¤Ĺ":2218,"à¥Ģ'":2219,"à¤®à¤ķà¤°":2220,"à¥ĩâĢĻ":2221,"à¤ªà¤Ĺ":2222,"à¤ªà¤ľ":2223,"à¤¦à¤¦":2224,"à¤¦à¤¹":2225,"à¤¦à¤«":2226,"à¤ľà¤Ł":2227,"à¤¬à¤§":2228,"à¤¬à¤¤à¤²":2229,"à¤¹à¤£":2230,"à¤ļà¤¸":2231,"à¤ļà¤¯à¤¨":2232,"à¤ħà¤¥":2233,"à¤¼à¤Ĥ":2234,"2020":2235,"à¤«à¤¡":2236,"à¤·à¤ª":2237,"à¤ĩà¤Łà¤°":2238,"à¤Ĩà¤°à¤ķ":2239,"à¤Īà¤¡":2240,"à¤ªà¤°à¤«":2241,"à¤µà¤°à¤¨":2242,"à¤ĵà¤ľ":2243,"à¥§à¥¦à¥¦":2244,"à¤¤à¤°à¤¨":2245,"à¤¤à¤°à¤«":2246,"à¤ĺà¤¡":2247,"à¤Ľà¤°":2248,"à¤Ľà¤ª":2249,"à¤Łà¤°à¤¬":2250,"Ġà¤ªà¤¦":2251,"à¤¸à¤°à¤²":2252,"à¤¸à¤°à¤£":2253,"à¤°à¤¸à¤¨":2254,"à¤¯à¤¨à¤¶":2255,"à¤¦à¤°à¤µ":2256,"à¤®à¤¹à¤²":2257,"à¤°à¤¹à¤¤":2258,"à¤¯à¤ķà¤¤":2259,"à¥©à¥®":2260,"à¤ĳà¤¡":2261,"ers":2262,"à¤īà¤ªà¤²à¤¬":2263,"à¤¬à¤¨à¤µ":2264,"à¥ªà¥¨":2265,"à¥¬à¥®":2266,"2003":2267,"2004":2268,"à¤Ĺà¤²à¤¤":2269,"are":2270,"à¤ħà¤ªà¤µ":2271,"à¤Ĳà¤®":2272,"à¥§à¥¯à¥¯":2273,"à¤Ķà¤·à¤§":2274,"ish":2275,"à¤Ĺà¤£à¤¨":2276,"à¤¸à¤¦à¤¸":2277,"Ġà¤ħà¤¬":2278,"à¤Ĩà¤µà¤¶":2279,"à¤ľà¤Ĺà¤¦":2280,"ack":2281,"Ġà¤ıà¤¯à¤°":2282,"www":2283,"1100":2284,"AM":2285,"BS":2286,"CE":2287,"NS":2288,"Pro":2289,"av":2290,"ach":2291,"ct":2292,"ff":2293,"ion":2294,"ium":2295,"oun":2296,"rom":2297,"sti":2298,"ud":2299,"Ø±":2300,"Ùħ":2301,"à²":2302,"Ġà¤īà¤ª":2303,"Ġà¤ľà¤²":2304,"Ġà¤Ĩà¤¨":2305,"Ġà¤Ĭà¤°":2306,"Ġà¤«à¤°à¤µà¤°":2307,"à¤¾'à¥¤":2308,"à¤°à¤ĸà¤¨":2309,"à¤¿à¤ĥ":2310,"à¤¨à¤°à¤¸":2311,"à¤¨à¤¯à¤¨":2312,"à¤¨à¤µà¤¤":2313,"à¤¸à¤ķà¤¤":2314,"à¤¸à¤¹à¤¨":2315,"à¤¸à¤Ĺà¤¢":2316,"à¤¤à¤ķà¤¨":2317,"à¤¤à¤ªà¤¸":2318,"à¤²à¤¶":2319,"à¤²à¤ĸ":2320,"à¤²à¤¯à¤¨":2321,"à¤²à¤Ĺà¤¤":2322,"à¤²à¤Łà¤ķ":2323,"à¤®à¤¸à¤¨":2324,"à¤®à¤¦à¤¨":2325,"à¤µà¤²à¤¨":2326,"à¤ªà¤µà¤¨":2327,"à¤¯à¤°à¤ķ":2328,"à¤¯à¤®à¤¨":2329,"à¤Ĺà¤µà¤°":2330,"à¤Ĺà¤²à¤¨":2331,"à¤Ĺà¤µà¤¤":2332,"à¤¬à¤¯":2333,"à¤¬à¤¹à¤¨":2334,"à¤¹à¤®à¤²":2335,"à¤¡à¤Ĺ":2336,"à¤¶à¤Ĺ":2337,"à¤¶à¤¶":2338,"à¤ļà¤ª":2339,"à¤ļà¤¡":2340,"à¤ļà¤ķà¤°":2341,"à¤ļà¤°à¤®":2342,"à¤ļà¤®à¤¤":2343,"à¤ļà¤²à¤¤":2344,"à¤ħà¤µà¤ķ":2345,"2011":2346,"à¤ıà¤£":2347,"à¤ıà¤µà¤°":2348,"à¤·à¤¸":2349,"à¤Ńà¤¨":2350,"à¤£à¤°":2351,"à¤ĩà¤¦":2352,"à¤ĩà¤¬à¤°":2353,"à¤Ĩà¤µà¤°":2354,"à¤Ĩà¤°à¤¸":2355,"à¤Ĩà¤¯à¤¨":2356,"à¤Ĩà¤ĩà¤¸":2357,"à¤ĸà¤ľ":2358,"à¤īà¤£":2359,"à¤īà¤®à¤°":2360,"à¤īà¤¨à¤ķ":2361,"à¥īà¤Ĥ":2362,"à¤°à¤¤à¤¨":2363,"à¤¤à¤°à¤®":2364,"à¤¤à¤°à¤ª":2365,"à¤¸à¤®à¤ķ":2366,"à¤Łà¤°à¤«":2367,"à¤łà¤¤":2368,"à¤ľà¤¨à¤¯":2369,"Ġà¤ªà¤Ł":2370,"à¤¢à¤ķ":2371,"à¤®à¤¨à¤¸":2372,"à¤¸à¤°à¤¦":2373,"à¤¬à¤°à¤¸":2374,"à¤¬à¤°à¤²":2375,"à¥Īà¤Ĥ,":2376,"à¤®à¤ķà¤¥":2377,"à¤°à¤µà¤£":2378,"à¤Ŀà¤¨":2379,"à¤īà¤ªà¤ķ":2380,"à¤īà¤ªà¤®":2381,"à¤§à¤°à¤¨":2382,"Ġà¤¨à¤µ":2383,"Ġà¤¨à¤Ĺà¤°":2384,"à¤¡à¤°à¤²":2385,"à¤ıà¤¨à¤µ":2386,"à¤ıà¤¨à¤ľ":2387,"à¤ıà¤¨à¤ıà¤¸":2388,"à¥ªà¥®":2389,"à¤¼à¥ĩ-":2390,"ong":2391,"Ġà¤¶à¤¹à¤°":2392,"2005":2393,"end":2394,"ens":2395,"à¤Ĭà¤¨":2396,"à¤ħà¤Ńà¤¯":2397,"à¤ıà¤®à¤ıà¤¸":2398,"à¤ħà¤ķà¤¬à¤°":2399,"à¤ľà¤¯à¤ª":2400,"à¥§à¥®à¥®":2401,"à¤¸à¤¬à¤¸":2402,"tical":2403,"ows":2404,"1150":2405,"1190":2406,"2160":2407,"3150":2408,"3500":2409,"5500":2410,"700":2411,"AA":2412,"CO":2413,"Cas":2414,"MD":2415,"MS":2416,"MT":2417,"My":2418,"NT":2419,"PI":2420,"Sh":2421,"Wind":2422,"ech":2423,"fi":2424,"ft":2425,"ket":2426,"mo":2427,"nit":2428,"pl":2429,"par":2430,"pol":2431,"ren":2432,"tor":2433,"Â£":2434,"Î±":2435,"âĪ":2436,"Ġ3":2437,"Ġà¤ķà¤°":2438,"Ġà¤¤à¤°":2439,"Ġà¤¹à¤°":2440,"Ġà¤µà¤¨":2441,"Ġà¤īà¤¤":2442,"Ġà¤Ĺà¤¤":2443,"Ġà¤ħà¤Ĺ":2444,"Ġà¤ļà¤ķ":2445,"Ġà¤ĺà¤°":2446,"à¤¾à¤¾":2447,"à¥įà¤Ĥ":2448,"à¤¨à¤¥":2449,"à¤¨à¤ĸ":2450,"à¤¨à¤°à¤ķ":2451,"à¤¨à¤¤à¤®":2452,"à¤ķà¤ķà¤°":2453,"à¤ķà¤®à¤°":2454,"à¤¸à¤µà¤°":2455,"à¤¸à¤¤à¤°":2456,"à¤¸à¤¬à¤°":2457,"à¤¸à¤¦à¤°":2458,"à¤¤à¤¶":2459,"à¤²à¤Ŀ":2460,"à¤²à¤ĸà¤¨":2461,"à¥Ģ,":2462,"à¤®à¤Ń":2463,"à¤ªà¤¹à¤°":2464,"à¤ªà¤Łà¤¨":2465,"à¤¯à¤°à¤®":2466,"à¤Łà¤¯":2467,"à¤Łà¤ľ":2468,"à¤Ĺà¤Ł":2469,"à¤Ĺà¤¹":2470,"à¤Ĺà¤Ī":2471,"à¤ľà¤§":2472,"à¤ľà¤Ĺà¤¨":2473,"à¤¡à¤¶":2474,"à¤ļà¤®à¤ķ":2475,"à¤ħà¤Ľ":2476,"à¥ĭà¤Ĥ/":2477,"à¤¼à¤¿à¤Ĥ":2478,"2000":2479,"2006":2480,"à¤§à¤¶":2481,"à¤§à¤®à¤¨":2482,"à¤ıà¤¤":2483,"à¤ıà¤¦":2484,"à¤ıà¤Ĩà¤Ī":2485,"à¤ıà¤¥à¤²":2486,"à¤Ńà¤µà¤¤":2487,"à¤£à¤¦":2488,"à¤ĩà¤ªà¤°":2489,"à¤ĩà¤®à¤°":2490,"à¤Ĩà¤ķà¤°":2491,"à¤Ĩà¤ªà¤°":2492,"à¤Ĩà¤®à¤¨":2493,"à¤Ĩà¤¯à¤°":2494,"à¤Ĩà¤ĩà¤¡":2495,"à¤Ĩà¤²à¤®":2496,"à¤¥à¤¯":2497,"à¤ĸà¤®":2498,"à¤īà¤Ńà¤°":2499,"à¥īà¥°":2500,"à¤Īà¤ĵ":2501,"à¤ĺà¤¬à¤°":2502,"à¤¸à¤®à¤¤":2503,"à¤Ľà¤¹":2504,"à¤Ľà¤ł":2505,"Ġà¤ķà¤®":2506,"Ġà¤ķà¤µ":2507,"à¥¦à¥Ń":2508,"à¤ľà¤¨à¤¤":2509,"à¤ľà¤¨à¤ľ":2510,"à¤°à¤ķà¤²":2511,"à¤®à¤¨à¤®":2512,"à¤¸à¤°à¤¨":2513,"à¤¶à¤¨à¤°":2514,"à¤ķà¤²à¤°":2515,"à¤ķà¤²à¤ķà¤¤":2516,"à¤°à¤®à¤°":2517,"à¤¦à¤°à¤Ĺ":2518,"Ġà¤®à¤¸":2519,"à¤°à¤£à¤µ":2520,"à¤°à¤£à¤ľ":2521,"à¤¼à¥Ģ-":2522,"à¤ıà¤¸à¤ª":2523,"à¤ıà¤¸à¤ı":2524,"à¤ıà¤ķà¤¤":2525,"à¤Ŀà¤°":2526,"à¤®à¤°à¤¨":2527,"ert":2528,"à¤īà¤ªà¤¶":2529,"à¤ıà¤²à¤¸":2530,"à¤ıà¤¨à¤ķ":2531,"à¥ªà¥¬":2532,"à¥ªà¥¯":2533,"à¥¬à¥ª":2534,"à¤¼à¥ĩà¥¤":2535,"Ġà¤¦à¤¤":2536,"1001":2537,"à¤ľà¤²à¤¸":2538,"1202":2539,"1203":2540,"2001":2541,"1301":2542,"1304":2543,"1801":2544,"1803":2545,"1804":2546,"1805":2547,"à¤ıà¤®à¤¡":2548,"1704":2549,"ary":2550,"ale":2551,"à¤ħà¤ªà¤¸":2552,"Ġà¤Ńà¤µà¤¨":2553,"à¤¸à¤¹à¤¯":2554,"à¤ħà¤µà¤¸à¤°":2555,"ates":2556,"its":2557,"rec":2558,"Ø§ÙĦ":2559,"à¤°à¤ľà¤¨à¤¨":2560,"form":2561,"Windows":2562,"âĪĴ":2563,"1160":2564,"1140":2565,"2150":2566,"2190":2567,"2140":2568,"3160":2569,"3190":2570,"3140":2571,"4150":2572,"4160":2573,"4190":2574,"4140":2575,"4500":2576,"5150":2577,"5160":2578,"5190":2579,"5140":2580,"AB":2581,"AR":2582,"CB":2583,"Co":2584,"ED":2585,"IP":2586,"IV":2587,"Med":2588,"Ne":2589,"Pl":2590,"Qu":2591,"Sp":2592,"Ser":2593,"XX":2594,"ax":2595,"ble":2596,"cr":2597,"cy":2598,"ey":2599,"ger":2600,"gar":2601,"ie":2602,"iti":2603,"ks":2604,"met":2605,"mad":2606,"oth":2607,"ps":2608,"por":2609,"rol":2610,"sy":2611,"sen":2612,"up":2613,"vir":2614,"xx":2615,"Ã¼":2616,"Ùĩ":2617,"ÙĬ":2618,"Ġà¤Ľ":2619,"Ġà¤°à¤µ":2620,"Ġà¤ĭà¤·":2621,"à¥ĵ":2622,"à¤¾à¤¼":2623,"à¤°à¤¬à¤²":2624,"à¤°à¤Ĺà¤¤":2625,"à¤¿:":2626,"à¤¿à¤¼":2627,"à¤¿âĢĻ":2628,"à¤¨à¤¹à¤°":2629,"à¤¨à¤¸à¤¨":2630,"à¤ķà¤¯":2631,"à¤ķà¤«":2632,"à¤ķà¤Ī":2633,"à¤ķà¤ªà¤¡":2634,"à¤¸à¤¥":2635,"à¤¸à¤¦à¤¨":2636,"à¤¤à¤¡":2637,"à¤¤à¤°à¤¤":2638,"à¤²à¤Ĺà¤¨":2639,"à¥ĢâĢ¢":2640,"à¤®à¤«":2641,"à¤®à¤¥":2642,"à¤®à¤Ī":2643,"à¤®à¤¦à¤°":2644,"à¥ĩ/":2645,"à¤ªà¤ª":2646,"à¤ªà¤ķà¤°":2647,"à¤ªà¤¥à¤°":2648,"à¥ĭâĢĻ":2649,"à¤Łà¤¸à¤¨":2650,"à¤¦à¤«à¤¨":2651,"à¤Ĺà¤¦à¤°":2652,"à¥ģà¤ĥ":2653,"à¤ľà¤Ń":2654,"à¤ľà¤¬à¤°":2655,"à¤¬à¤¬":2656,"à¤¬à¤«":2657,"à¤¬à¤ķà¤°":2658,"à¤¹à¤Ĺ":2659,"à¤¹à¤«":2660,"à¤¹à¤²à¤ķ":2661,"à¤¡à¤Ł":2662,"à¤¡à¤«":2663,"à¤¡à¤ķà¤°":2664,"à¤¡à¤¬à¤°":2665,"à¤¶à¤ľ":2666,"à¤¶à¤ĸ":2667,"à¤ļà¤¬":2668,"à¤ļà¤¶":2669,"à¤ļà¤£":2670,"à¥Ĥà¥°":2671,"à¤ħà¤°à¤µ":2672,"à¤ħà¤¹à¤®":2673,"1960":2674,"à¤¼à¤¾à¤Ĥ":2675,"2013":2676,"2018":2677,"2008":2678,"2007":2679,"à¤§à¤¸":2680,"à¤§à¤ķà¤°":2681,"à¤§à¤®à¤ķ":2682,"à¤ıà¤¥":2683,"à¤ıà¤ķà¤°":2684,"à¤ıà¤¹à¤¸":2685,"à¤·à¤¨":2686,"à¤·à¤¯à¤ķ":2687,"à¤Ńà¤¤":2688,"à¤Ńà¤¯":2689,"à¤£à¤µà¤¤":2690,"à¤£à¤ķà¤Ł":2691,"à¤ĩà¤¸à¤°":2692,"à¤ĩà¤Łà¤¨":2693,"à¤ĩà¤«à¤²":2694,"à¤Ĩà¤ı":2695,"à¤Ĩà¤«":2696,"à¤Ĩà¤ĩà¤²":2697,"à¤Ĩà¤ªà¤ķ":2698,"à¤Ĩà¤łà¤µ":2699,"à¤¥à¤ª":2700,"à¤ĸà¤²à¤¨":2701,"à¤īà¤§":2702,"à¤īà¤¸à¤ķ":2703,"à¤Īà¤¦":2704,"à¤Īà¤ľ":2705,"âĢİ":2706,"à¤ªà¤°à¤¹":2707,"à¤µà¤°à¤¸":2708,"à¤µà¤°à¤®":2709,"à¤ĵà¤ıà¤²":2710,"à¤ģà¥¤":2711,"à¤¤à¤°à¤¦":2712,"à¤¤à¤°à¤¹":2713,"à¤ĺà¤ķ":2714,"à¤ĺà¤®":2715,"à¤ĺà¤µ":2716,"à¤Łà¤°à¤®":2717,"à¤Łà¤°à¤µ":2718,"à¤Łà¤°à¤Ł":2719,"à¤łà¤°":2720,"à¤łà¤²":2721,"à¤łà¤£":2722,"à¥¦à¥¬":2723,"à¤ľà¤¨à¤°":2724,"à¤ľà¤¨à¤ªà¤¦":2725,"à¤°à¤ķà¤¤":2726,"à¤ħà¤¨à¤¨":2727,"à¤¬à¤°à¤®":2728,"à¤¹à¤°à¤¬":2729,"à¤¸à¤¨à¤°":2730,"à¤¸à¤¨à¤ķ":2731,"à¤ªà¤¤à¤¨":2732,"à¤ĩà¤¨à¤ķ":2733,"à¤ĩà¤¨à¤®":2734,"à¤ĩà¤¨à¤«":2735,"à¤ıà¤¸à¤Ł":2736,"à¤ıà¤¸à¤ıà¤¸":2737,"à¤ıà¤ķà¤®":2738,"à¤Ŀà¤²à¤ķ":2739,"à¥©à¥©":2740,"à¤²à¤ķà¤¡":2741,"à¤ĳà¤¬":2742,"à¤¬à¤²à¤°":2743,"à¤Ĩà¤Īà¤ıà¤®":2744,"à¥«à¥¬":2745,"à¥«à¥®":2746,"à¤īà¤ªà¤µ":2747,"Ġà¤¨à¤µà¤®":2748,"à¤ıà¤¨à¤ı":2749,"à¤ıà¤¨à¤ıà¤ļ":2750,"à¥Ńà¥§":2751,"à¥¬à¥§":2752,"Ġà¤¦à¤²":2753,"ond":2754,"ons":2755,"1201":2756,"1204":2757,"1205":2758,"eng":2759,"à¤Ĭà¤ªà¤°":2760,"1302":2761,"1303":2762,"1305":2763,"1802":2764,"à¤ıà¤®à¤Ł":2765,"1701":2766,"1702":2767,"1703":2768,"1705":2769,"à¥¯à¥®":2770,"à¤ħà¤¸à¤¤":2771,"à¤¦à¤¨à¤¶":2772,"à¤ªà¤¦à¤µ":2773,"à¤ķà¤®à¤ľ":2774,"à¤Ĳà¤°":2775,"ord":2776,"ort":2777,"à¤Ķà¤¸à¤¤":2778,"ism":2779,"icro":2780,"à¤ľà¤¯à¤¦":2781,"à¤¬à¤¦à¤²à¤¤":2782,"ast":2783,"ite":2784,"ith":2785,"à¤ıà¤¡à¤µ":2786,"à¤Ĩà¤¦à¤®":2787,"à¤¸à¤«à¤²à¤¤":2788,"à¤®à¤ľà¤¦":2789,"à¤®à¤ľà¤¬":2790,"ure":2791,"Ġà¤Ĩà¤¶":2792,"ace":2793,"à¤ļà¤®à¤¡":2794,"ular":2795,"tern":2796,"tics":2797,"à¤Ńà¤Ĺà¤µà¤¤":2798,"rans":2799,"ology":2800,"2100":2801,"3100":2802,"4100":2803,"5100":2804,"750":2805,"800":2806,"AD":2807,"AL":2808,"AN":2809,"Ab":2810,"BC":2811,"BI":2812,"Br":2813,"Cl":2814,"DP":2815,"Dis":2816,"EC":2817,"EM":2818,"ER":2819,"Ex":2820,"FC":2821,"GA":2822,"Gra":2823,"HS":2824,"MA":2825,"Mus":2826,"NY":2827,"PC":2828,"PO":2829,"PT":2830,"Ph":2831,"Re":2832,"TF":2833,"Tra":2834,"Ze":2835,"ai":2836,"aw":2837,"be":2838,"back":2839,"car":2840,"ces":2841,"dis":2842,"data":2843,"fl":2844,"go":2845,"ii":2846,"iv":2847,"ien":2848,"iver":2849,"ll":2850,"land":2851,"me":2852,"ml":2853,"mal":2854,"na":2855,"oh":2856,"ue":2857,"vill":2858,"war":2859,"yl":2860,"ysis":2861,"Ã¤":2862,"Ã³":2863,"Ð°":2864,"ØŃ":2865,"à¸":2866,"Ġà¤¥":2867,"Ġà¤°à¤¸":2868,"Ġà¤Ĩà¤Ī":2869,"Ġà¤ļà¤¨":2870,"Ġà¤Ĩà¤°":2871,"Ġà¤ıà¤¨":2872,"Ġà¤ľà¤°":2873,"Ġà¤ļà¤°":2874,"Ġà¤Ĩà¤¤":2875,"Ġà¤ĭà¤¤":2876,"à¤½":2877,"à¤¾à¥į":2878,"à¤¾à¥Ģ":2879,"à¤°à¤¬à¤°":2880,"à¤°à¤¹à¤°":2881,"à¤°à¤ķà¤°à¤£":2882,"à¤°à¤ļà¤²":2883,"à¤°à¤Ĺà¤¢":2884,"à¤¿.":2885,"à¤¨à¤ı":2886,"à¤¨à¤®à¤¨":2887,"à¤¨à¤®à¤ķ":2888,"à¤ķà¤Ľ":2889,"à¤ķà¤«à¤°":2890,"à¤¤à¤Ł":2891,"à¤¤à¤¹à¤¸":2892,"à¤®à¤ĸ":2893,"à¤®à¤ªà¤°":2894,"à¤®à¤µà¤°":2895,"à¤®à¤°à¤¤":2896,"à¤®à¤ļà¤°":2897,"à¤®à¤Ĭ":2898,"à¤®à¤¶à¤°":2899,"à¤Ĥà¥°":2900,"à¥ĩ,":2901,"à¥ĩà¤¼":2902,"à¥ĩà¥°":2903,"à¤µà¤¬":2904,"à¤µà¤ķà¤°":2905,"à¤µà¤²à¤¯":2906,"à¤µà¤¯à¤¸":2907,"à¤ªà¤ĸ":2908,"à¤ªà¤¸à¤®":2909,"à¤ªà¤Łà¤°":2910,"à¤ªà¤²à¤ķ":2911,"à¤ªà¤Łà¤ķ":2912,"à¥ĭà¤ģ":2913,"à¤¯à¤µà¤°":2914,"à¤¯à¤¸à¤°":2915,"à¤¯à¤¸à¤¨":2916,"à¤¯à¤µà¤¨":2917,"à¤¯à¤ķà¤°à¤£":2918,"à¤¯à¤ªà¤¦":2919,"à¤Łà¤¹":2920,"à¤¦à¤ľ":2921,"à¤¦à¤¡":2922,"à¤¦à¤£":2923,"à¤¦à¤ķà¤°":2924,"à¤¦à¤°à¤¤":2925,"à¤¦à¤°à¤¸":2926,"à¤Ĺà¤ļ":2927,"à¤Ĺà¤«":2928,"à¤Ĺà¤²à¤ķ":2929,"à¤Ĺà¤®à¤¤":2930,"à¤Ĺà¤¹à¤¨":2931,"à¤ľà¤ľ":2932,"à¤ľà¤ķà¤°":2933,"à¤ľà¤¯à¤°":2934,"à¤ľà¤ªà¤¤":2935,"à¤ľà¤¯à¤ķ":2936,"à¤ľà¤²à¤¨":2937,"à¤ľà¤ķà¤¤":2938,"à¤ľà¤Ĺà¤®":2939,"à¤¬à¤ª":2940,"à¤¬à¤¦à¤¨":2941,"à¤¹à¤°à¤¸":2942,"à¤¡à¤¤":2943,"à¤¡à¤¯":2944,"à¤¡à¤£":2945,"à¤¡à¤¹à¤°":2946,"à¤¶à¤°à¤¤":2947,"à¤ļà¤ķà¤¤":2948,"à¤ļà¤ªà¤Ł":2949,"à¤ħà¤µà¤¨":2950,"à¤ħà¤°à¤£":2951,"à¤ħà¤Ĺà¤²":2952,"à¤ħà¤ªà¤ķ":2953,"à¤ħà¤Łà¤²":2954,"à¤ħà¤¶à¤°":2955,"1000":2956,"1986":2957,"2015":2958,"2016":2959,"à¤§à¤²":2960,"à¤§à¤¡":2961,"à¤ıà¤Łà¤°":2962,"à¤ıà¤ħà¤°":2963,"à¤«à¤Ł":2964,"à¤«à¤Łà¤¨":2965,"à¤«à¤²à¤ķ":2966,"à¤«à¤²à¤¤":2967,"à¤·à¤·":2968,"à¤·à¤°à¤¤":2969,"à¤Ńà¤°à¤£":2970,"à¤ĩà¤¹":2971,"à¤ĩà¤ı":2972,"à¤ĩà¤·":2973,"à¤ĩà¤®à¤¨":2974,"à¤ĩà¤ķà¤²":2975,"à¤ĩà¤¸à¤²":2976,"à¤Ĩà¤Ĺà¤°":2977,"à¤Ĩà¤¯à¤¤":2978,"à¤Ĩà¤ĩà¤ľ":2979,"à¤Ĩà¤ªà¤¸":2980,"à¤Ĩà¤ĩà¤ª":2981,"à¤ĸà¤¸":2982,"6000":2983,"à¤īà¤Ł":2984,"à¤īà¤¥à¤²":2985,"à¤Īà¤ķà¤²":2986,"à¤Īà¤ıà¤²":2987,"à¤ªà¤°à¤¦":2988,"à¤ªà¤°à¤ĸ":2989,"à¤µà¤°à¤ķ":2990,"à¤ĵà¤ªà¤¨":2991,"à¤°à¤¤à¤®":2992,"Ġà¤¸à¤¹":2993,"à¤¤à¤°à¤ľ":2994,"à¤ĺà¤¸":2995,"à¤ĺà¤²":2996,"à¤ĺà¤Łà¤ķ":2997,"à¤¸à¤®à¤¨":2998,"à¤¸à¤®à¤²":2999,"à¤¸à¤®à¤Ĺ":3000,"à¤Ľà¤Ł":3001,"à¤łà¤¸":3002,"à¥¦à¥©":3003,"à¤ľà¤¨à¤¨":3004,"à¤ľà¤¨à¤¶":3005,"à¤ħà¤¨à¤¸":3006,"à¤ħà¤¨à¤µà¤°":3007,"à¤¼à¤¾-":3008,"à¤¢à¤²":3009,"à¤®à¤¨à¤ķ":3010,"à¤¬à¤°à¤¨":3011,"à¤¦à¤°à¤²":3012,"à¤Ĺà¤°à¤£":3013,"à¤ªà¤¤à¤²":3014,"à¤ĩà¤¨à¤¹":3015,"à¤°à¤£à¤¨":3016,"à¤°à¤£à¤¯":3017,"à¤ıà¤¸à¤¡":3018,"à¤ıà¤¸à¤ıà¤²":3019,"à¤ıà¤ķà¤ķ":3020,"à¤Ŀà¤¡":3021,"à¤Ŀà¤Ĺà¤¡":3022,"à¤ŀà¤¤":3023,"à¤µà¤¤à¤¨":3024,"à¤µà¤¤à¤®":3025,"à¤¯à¤®à¤¯":3026,"à¤¬à¤²à¤µ":3027,"à¤Ĩà¤Īà¤µ":3028,"à¤Ĩà¤Īà¤ľ":3029,"à¤Ĩà¤Īà¤¬":3030,"à¤Ĩà¤Īà¤Ĩà¤Ī":3031,"à¥«à¥¨":3032,"à¥«à¥¦à¥¦":3033,"à¤īà¤ªà¤Ĺ":3034,"à¤īà¤ªà¤ķà¤°à¤£":3035,"à¤¬à¤¨à¤¨":3036,"à¤¡à¤°à¤Ł":3037,"à¤¤à¤¨à¤¤":3038,"à¤®à¤²à¤¤":3039,"à¤®à¤²à¤¯":3040,"à¥Ńà¥©":3041,"à¥Ńà¥«":3042,"à¥Ńà¥¬":3043,"à¥¬à¥¨":3044,"à¥¬à¥¯":3045,"à¥¬à¥¦à¥¦":3046,"âĢĻà¥¤":3047,"à¤ľà¤°à¤¨":3048,"ani":3049,"ank":3050,"ann":3051,"à¤ľà¤²à¤ª":3052,"ene":3053,"à¤Ĭà¤Ł":3054,"à¤Ĭà¤¦":3055,"à¥¯à¥ª":3056,"à¥¯à¥¬":3057,"à¤ħà¤¸à¤¹":3058,"ari":3059,"à¤²à¤¤à¤®":3060,"à¤ĩà¤¸à¤ķ":3061,"à¤¨à¤µà¤ľ":3062,"à¤ħà¤ªà¤²":3063,"à¤ħà¤ªà¤®":3064,"à¤°à¤¦à¤¤":3065,"à¤Ĳà¤¤":3066,"à¤Ĳà¤ª":3067,"à¤¸à¤¹à¤ķ":3068,"à¤īà¤¦à¤¯":3069,"à¤ħà¤µà¤®":3070,"à¤²à¤µà¤£":3071,"ore":3072,"org":3073,"à¤Ķà¤ªà¤ļ":3074,"à¤°à¤¶à¤¸":3075,"à¤¨à¤¸à¤Ń":3076,"à¤²à¤Ĺà¤µ":3077,"ics":3078,"Ġà¤¹à¤ľ":3079,"ater":3080,"ated":3081,"ase":3082,"à¥§à¥®à¥Ń":3083,"old":3084,"à¤Ĺà¤£à¤¤":3085,"omet":3086,"Ġà¤ªà¤°à¤®":3087,"à¤¸à¤¬à¤ķ":3088,"ust":3089,"che":3090,"Ġà¤ħà¤®à¤°":3091,"à¤ıà¤ļà¤ª":3092,"à¤ıà¤ļà¤¡":3093,"à¤°à¤ĸà¤ª":3094,"à¤°à¤ĸà¤£":3095,"à¤ķà¤¥à¤¨":3096,"à¤ľà¤Ĺà¤¹":3097,"à¤ħà¤«à¤Ĺ":3098,"amp":3099,"reg":3100,"Ġà¤ıà¤µ":3101,"agar":3102,"à¤ªà¤ļà¤¯":3103,"Ġà¤®à¤¹à¤²":3104,"à¤īà¤ªà¤¨à¤Ĺà¤°":3105,"à¤¸à¤®à¤Ŀà¤¨":3106,"à¤ıà¤¯à¤°à¤²":3107,"comp":3108,"lav":3109,"Ø§ÙĨ":3110,"elect":3111,"à¤ħà¤¶à¤°à¤«":3112,"720":3113,"848":3114,"853":3115,"900":3116,"Av":3117,"App":3118,"BD":3119,"Bro":3120,"CH":3121,"CL":3122,"CP":3123,"CR":3124,"Can":3125,"Cal":3126,"DT":3127,"EO":3128,"El":3129,"FA":3130,"FD":3131,"Gen":3132,"Gro":3133,"HC":3134,"He":3135,"King":3136,"LL":3137,"Le":3138,"MC":3139,"ML":3140,"Man":3141,"Mak":3142,"May":3143,"NI":3144,"OD":3145,"OH":3146,"ON":3147,"On":3148,"Or":3149,"Par":3150,"Pol":3151,"Pre":3152,"Ro":3153,"Res":3154,"SH":3155,"SP":3156,"ST":3157,"SW":3158,"Sam":3159,"TA":3160,"UL":3161,"Ver":3162,"af":3163,"aj":3164,"az":3165,"aur":3166,"bi":3167,"bl":3168,"bur":3169,"cro":3170,"cry":3171,"cens":3172,"do":3173,"dr":3174,"duc":3175,"fic":3176,"fac":3177,"gr":3178,"hor":3179,"ke":3180,"ken":3181,"mm":3182,"man":3183,"mar":3184,"micro":3185,"ner":3186,"net":3187,"of":3188,"ox":3189,"oit":3190,"over":3191,"pes":3192,"ption":3193,"se":3194,"sh":3195,"so":3196,"ser":3197,"son":3198,"sit":3199,"sel":3200,"sha":3201,"tl":3202,"ton":3203,"tle":3204,"tel":3205,"ution":3206,"val":3207,"yal":3208,"Â½":3209,"Ã¡":3210,"ÃĹ":3211,"Î¼":3212,"Ïģ":3213,"Ø¨":3214,"Ø©":3215,"Ø®":3216,"ÙĪ":3217,"à°":3218,"Ġà¤Ī":3219,"Ġà¤ł":3220,"Ġà¤°à¤ķ":3221,"Ġà¤¤à¤¨":3222,"Ġà¤²à¤¤":3223,"Ġà¤ĩà¤¸":3224,"Ġà¤ĵà¤²":3225,"à¥Ĭ":3226,"à¥ł":3227,"à¤¾.":3228,"à¤¾âĢĿ":3229,"à¤¾à¥ĵ":3230,"à¥į-":3231,"à¤°à¤Ŀ":3232,"à¤¨à¤·":3233,"à¤¨à¤¸à¤°":3234,"à¤ķà¤§":3235,"à¤ķà¤¤à¤°":3236,"à¤ķà¤ķà¤²":3237,"à¤ķà¤¸à¤¨":3238,"à¤ķà¤ħà¤ª":3239,"à¤ķà¤¹à¤¤":3240,"à¤ķà¤ķà¤¥":3241,"à¤ķà¤Ĩà¤īà¤Ł":3242,"à¤¸à¤¶":3243,"à¤¸à¤ªà¤°":3244,"à¤¸à¤Łà¤°":3245,"à¤¸à¤¹à¤°":3246,"à¤¸à¤ıà¤ķ":3247,"à¤¸à¤¤à¤¨":3248,"à¤¤à¤Ń":3249,"à¤¤à¤µà¤°":3250,"à¤¤à¤¹à¤°":3251,"à¤¤à¤¬à¤²":3252,"à¤²à¤¹à¤¨":3253,"à¤²à¤¹à¤µ":3254,"à¤²à¤¹à¤ľ":3255,"à¤²à¤ĸà¤£":3256,"à¤®à¤ĺ":3257,"à¤®à¤°à¤ķ":3258,"à¤®à¤¢":3259,"à¤®à¤²à¤ķ":3260,"à¥ĩ'":3261,"à¥ĩà¤ģ":3262,"à¥ĩâĢĶ":3263,"à¤µà¤µà¤°":3264,"à¤ªà¤Ľ":3265,"à¤ªà¤ł":3266,"à¤ªà¤¸à¤¨":3267,"à¤ªà¤Ĺà¤¢":3268,"à¤ªà¤łà¤¨":3269,"à¤¯à¤§":3270,"à¤¯à¤«à¤²":3271,"à¤Łà¤¦":3272,"à¤Łà¤Ń":3273,"à¤Łà¤ªà¤ķ":3274,"à¤¦à¤ļ":3275,"à¤¦à¤®à¤ķ":3276,"à¤¦à¤¸à¤µ":3277,"à¤¦à¤¶à¤®":3278,"à¤Ĺà¤Ĺ":3279,"à¤Ĺà¤ı":3280,"à¤ľà¤¬à¤¡":3281,"à¤ľà¤łà¤°":3282,"à¤¬à¤¸à¤¨":3283,"à¤¬à¤ķà¤¤":3284,"à¤¬à¤ļà¤¤":3285,"à¤¹à¤Ń":3286,"à¤¹à¤¤à¤°":3287,"à¤¹à¤¸à¤¨":3288,"à¤¡à¤¦":3289,"à¤¡à¤ľ":3290,"à¤¶à¤Ł":3291,"à¤¶à¤Ń":3292,"à¤¶à¤£":3293,"à¤ļà¤Ĺ":3294,"à¤ļà¤¹":3295,"à¤ļà¤ļ":3296,"à¤ļà¤ķà¤²":3297,"à¤ļà¤°à¤µ":3298,"à¥Ĥ.":3299,"à¥Ĥà¥¤":3300,"à¤ħà¤ł":3301,"à¤ħà¤µà¤¤":3302,"à¤ħà¤¸à¤²":3303,"à¤ħà¤ļà¤²":3304,"à¤ħà¤ľà¤¯":3305,"1912":3306,"1930":3307,"1950":3308,"1939":3309,"1957":3310,"1959":3311,"1946":3312,"1968":3313,"1969":3314,"1967":3315,"1970":3316,"1906":3317,"1961":3318,"1991":3319,"à¥ĭà¤Ĥà¥¤":3320,"1815":3321,"1800":3322,"1881":3323,"à¤¼à¥¤":3324,"2010":3325,"2017":3326,"2009":3327,"à¤§à¤¯":3328,"à¤§à¤¦":3329,"à¤§à¤°à¤¤":3330,"à¤ıà¤¬à¤°":3331,"à¤ıà¤ıà¤¸":3332,"à¤ıà¤®à¤°":3333,"à¤ıà¤¨à¤°":3334,"à¤ıà¤¯à¤°à¤ķ":3335,"à¤«à¤ķ":3336,"à¤«à¤¸":3337,"à¤«à¤Ĺ":3338,"à¤«à¤°à¤®":3339,"à¤«à¤¸à¤²":3340,"à¤Ńà¤¸":3341,"à¤Ńà¤£":3342,"à¤Ńà¤Ĺà¤¤":3343,"à¤£à¤Ĺ":3344,"à¤£à¤Ń":3345,"à¤£à¤ªà¤¤":3346,"à¤ĩà¤¸à¤®":3347,"à¤ĩà¤°à¤¸":3348,"à¤ĩà¤¤à¤¨":3349,"à¤Ĩà¤Ł":3350,"à¤Ĩà¤·":3351,"à¤Ĩà¤ĩà¤¨":3352,"à¤Ĩà¤ĩà¤Ł":3353,"à¤Ĩà¤ľà¤®":3354,"à¤Ĩà¤ĩà¤µ":3355,"à¤Ĩà¤ıà¤Ĺ":3356,"à¤¥à¤¦":3357,"à¤¥à¤¶":3358,"à¤ĸà¤ª":3359,"à¤ĸà¤¬":3360,"à¤ĸà¤Ń":3361,"à¤ĸà¤¤à¤°":3362,"à¤ĸà¤¬à¤°":3363,"à¤ĸà¤¨à¤¨":3364,"à¤īà¤ĸ":3365,"à¤īà¤ķà¤¸":3366,"à¤Īà¤¬":3367,"à¤Īà¤·":3368,"à¤Īà¤ıà¤«":3369,"à¤¾à¤Ĥ-":3370,"à¤ªà¤°à¤²":3371,"à¤ªà¤°à¤ľ":3372,"à¤µà¤°à¤¦":3373,"à¤ĵà¤µ":3374,"à¤ĵà¤¶":3375,"à¤ĵà¤²à¤®":3376,"à¤ĵà¤·à¤§":3377,"à¥Į-":3378,"à¤°à¤¤à¤°":3379,"à¤°à¤¤à¤¤":3380,"à¤ģ-":3381,"Ġà¤¸à¤¤":3382,"Ġà¤¸à¤²":3383,"Ġà¤¸à¤ļ":3384,"Ġà¤¸à¤®à¤¯":3385,"à¥§à¥¦à¥¦à¥¦":3386,"à¤¤à¤°à¤¸":3387,"à¤ĺà¤¨à¤¤":3388,"à¤¸à¤®à¤¤à¤²":3389,"à¤Ľà¤ķ":3390,"à¤Ľà¤®":3391,"à¤Ľà¤¦":3392,"à¤Łà¤°à¤²":3393,"à¤łà¤ķà¤¥":3394,"Ġà¤ķà¤ķ":3395,"Ġà¤ķà¤¹":3396,"Ġà¤ķà¤¥":3397,"à¤ľà¤¨à¤®":3398,"à¤ľà¤¨à¤µ":3399,"à¤ľà¤¨à¤°à¤²":3400,"Ġà¤ªà¤ķ":3401,"Ġà¤ªà¤¹":3402,"Ġà¤ªà¤¦à¤ķ":3403,"à¤¢à¤¤":3404,"à¤¶à¤¨à¤Ĺ":3405,"à¤ķà¤²à¤®":3406,"à¤°à¤¸à¤µ":3407,"à¥¨à¥§à¥ª":3408,"à¤°à¤®à¤¸":3409,"à¤°à¤®à¤¯":3410,"à¤¯à¤°à¤²":3411,"à¥Īà¤ĤâĢĶ":3412,"à¤®à¤¹à¤®":3413,"à¤¸à¤¨à¤¸":3414,"à¤¸à¤¨à¤¦":3415,"à¤µà¤¨à¤ķ":3416,"à¤µà¤¨à¤®":3417,"à¤µà¤¨à¤µ":3418,"à¤µà¤¨à¤¦":3419,"à¤µà¤¨à¤¡":3420,"à¤ĩà¤¨à¤µ":3421,"à¤°à¤£à¤¬":3422,"à¤°à¤¹à¤®à¤¤":3423,"à¤¼à¥Ģà¥¤":3424,"à¤ıà¤¸à¤¯":3425,"à¤ıà¤¸à¤ľ":3426,"à¤ıà¤¸à¤¬":3427,"à¤ıà¤¸à¤Ī":3428,"à¤¯à¤ķà¤µ":3429,"à¤Ŀà¤Łà¤ķ":3430,"à¤µà¤¸à¤¤":3431,"à¤Łà¤¨à¤°":3432,"à¥©à¥¦à¥¦":3433,"à¤ĳà¤¨à¤°":3434,"à¤ĳà¤¯à¤²":3435,"ero":3436,"ering":3437,"eration":3438,"à¤¬à¤²à¤¤":3439,"à¤¬à¤²à¤ª":3440,"à¤¬à¤²à¤¬":3441,"à¤Ĩà¤Īà¤Ĩà¤°":3442,"à¤Ĩà¤Īà¤ıà¤²":3443,"à¥«à¥«":3444,"à¤īà¤ªà¤¬":3445,"à¤īà¤ªà¤¹":3446,"à¤īà¤ªà¤ļ":3447,"à¤Ĩà¤°à¤ª":3448,"à¤Ĩà¤°à¤¡":3449,"à¤Ĩà¤°à¤Ĩà¤Ī":3450,"à¤¬à¤¨à¤¤":3451,"à¤ıà¤²à¤ı":3452,"inc":3453,"inv":3454,"à¤ıà¤¨à¤¬":3455,"à¤ıà¤¨à¤Ĩà¤°":3456,"à¤¤à¤¨à¤ª":3457,"à¥ªà¥§":3458,"Ġà¤¦à¤¯":3459,"ang":3460,"anit":3461,"anth":3462,"à¤®à¤¤à¤¦":3463,"one":3464,"onment":3465,"Ġà¤¬à¤¹":3466,"à¤ľà¤²à¤¯":3467,"à¤ļà¤°à¤²":3468,"à¤ĩà¤Łà¤²":3469,"à¤Ĭà¤¤à¤ķ":3470,"tive":3471,"à¤Ĺà¤²à¤¸":3472,"à¥®à¥§":3473,"à¥®à¥Ń":3474,"à¤ıà¤®à¤ª":3475,"à¤ıà¤®à¤¬":3476,"à¤ıà¤®à¤ı":3477,"à¤ıà¤®à¤Ĩà¤Ī":3478,"à¤ıà¤®à¤ıà¤²":3479,"à¥¯à¥§":3480,"à¥¯à¥¦":3481,"à¥¯à¥¨":3482,"à¥¯à¥©":3483,"à¥¯à¥Ń":3484,"arm":3485,"à¤¹à¤¨à¤¤":3486,"ales":3487,"à¤ªà¤¦à¤ļ":3488,"à¤¨à¤µà¤®":3489,"à¤¨à¤µà¤ª":3490,"Ġà¤Ńà¤Ł":3491,"à¤Ĳà¤¬":3492,"à¤Ĳà¤¤à¤°":3493,"à¤¸à¤¹à¤ľ":3494,"à¤¸à¤¹à¤Ń":3495,"à¤¸à¤¤à¤¤":3496,"à¤¸à¤¤à¤¹":3497,"à¤¯à¤²à¤°":3498,"ork":3499,"ory":3500,"à¤°à¤ľà¤¤":3501,"à¤°à¤ľà¤Ń":3502,"à¤Ķà¤²":3503,"à¤Ķà¤ªà¤¨":3504,"à¤ķà¤Łà¤¤":3505,"ice":3506,"à¤īà¤¨à¤²":3507,"à¤īà¤¨à¤¹":3508,"ash":3509,"à¤Ĺà¤£à¤ķ":3510,"ome":3511,"à¤°à¤Ĺà¤¡":3512,"ration":3513,"à¤Ĩà¤µà¤ľ":3514,"à¤ıà¤ļà¤ıà¤¸":3515,"ety":3516,"à¤°à¤ĸà¤¤":3517,"à¤°à¤ĸà¤µ":3518,"à¤¬à¤¢à¤¤":3519,"à¤īà¤²à¤Ł":3520,"stem":3521,"à¤ľà¤Ĺà¤ľ":3522,"the":3523,"ild":3524,"à¤Ĺà¤¡à¤®":3525,"à¤¹à¤ľà¤°à¤¤":3526,"ult":3527,"à¤°à¤®à¤£à¤ķ":3528,"à¤īà¤®à¤¡":3529,"ung":3530,"ose":3531,"opter":3532,"à¤ıà¤¯à¤°à¤ª":3533,"à®®":3534,"à®¿":3535,"able":3536,"à¤Ĩà¤īà¤Łà¤¸":3537,"à¥¨à¥¦à¥¦à¥Ń":3538,"idae":3539,"html":3540,"à¤ħà¤Łà¤ķà¤²":3541,"à¤ħà¤ĸà¤¬":3542,"sion":3543,"scop":3544,"à¤īà¤Ńà¤¯":3545,"III":3546,"que":3547,"spec":3548,"CDO":3549,"here":3550,"lash":3551,"à¯į":3552,"à¤ľà¤¯à¤¨à¤Ĺà¤°":3553,"Comp":3554,"Ø³ÙĦ":3555,"à¤²à¤ĸà¤¨à¤Ĭ":3556,"vironment":3557,"village":3558,"Ð°Ñ":3559,"à¤ªà¤Łà¤ķà¤¥":3560,"à¤ľà¤Ĺà¤®à¤Ĺ":3561,"à¤ıà¤¸à¤ıà¤²à¤µ":3562,"census":3563,"612":3564,"620":3565,"640":3566,"633":3567,"644":3568,"734":3569,"736":3570,"769":3571,"812":3572,"819":3573,"849":3574,"866":3575,"842":3576,"987":3577,"AI":3578,"AU":3579,"AV":3580,"Aut":3581,"BO":3582,"Be":3583,"Bi":3584,"Bar":3585,"Bah":3586,"CA":3587,"CC":3588,"CI":3589,"Con":3590,"Cor":3591,"Cro":3592,"DV":3593,"De":3594,"Do":3595,"EE":3596,"EG":3597,"ES":3598,"Ec":3599,"Em":3600,"Er":3601,"FE":3602,"FF":3603,"FL":3604,"For":3605,"GS":3606,"Gl":3607,"HD":3608,"HP":3609,"HR":3610,"KC":3611,"LE":3612,"LM":3613,"MI":3614,"MV":3615,"Me":3616,"Mu":3617,"Mer":3618,"Min":3619,"Mas":3620,"Met":3621,"Mac":3622,"NO":3623,"OV":3624,"Od":3625,"Op":3626,"PK":3627,"PM":3628,"PR":3629,"Pa":3630,"Pe":3631,"Pr":3632,"Per":3633,"Pat":3634,"Qur":3635,"RO":3636,"Rob":3637,"RNA":3638,"SC":3639,"SE":3640,"SI":3641,"Su":3642,"Sar":3643,"Soc":3644,"TD":3645,"Th":3646,"Tri":3647,"The":3648,"Trans":3649,"Unit":3650,"UTF":3651,"WH":3652,"Zh":3653,"aut":3654,"br":3655,"bs":3656,"ber":3657,"bon":3658,"bit":3659,"bro":3660,"ck":3661,"can":3662,"cal":3663,"cri":3664,"cla":3665,"cular":3666,"dom":3667,"dra":3668,"eed":3669,"fa":3670,"fr":3671,"gg":3672,"gh":3673,"ging":3674,"ght":3675,"gran":3676,"gram":3677,"hi":3678,"him":3679,"hab":3680,"ik":3681,"ix":3682,"ile":3683,"ide":3684,"jas":3685,"kk":3686,"km":3687,"ld":3688,"ler":3689,"les":3690,"lor":3691,"lam":3692,"line":3693,"mi":3694,"mon":3695,"men":3696,"mes":3697,"mor":3698,"mit":3699,"mus":3700,"mag":3701,"nc":3702,"ois":3703,"oic":3704,"oog":3705,"oint":3706,"pa":3707,"pat":3708,"plas":3709,"rist":3710,"sk":3711,"sum":3712,"stic":3713,"sec":3714,"sub":3715,"to":3716,"ten":3717,"tar":3718,"trans":3719,"ude":3720,"vi":3721,"vel":3722,"wa":3723,"we":3724,"¾Ð":3725,"Â´":3726,"Äģ":3727,"Î²":3728,"Î¹":3729,"Î½":3730,"Ð¾Ð":3731,"ÑĤ":3732,"Ø¯":3733,"Ø¹":3734,"à¦":3735,"à«":3736,"à³":3737,"Ġ2":3738,"Ġà¤¬à¤°":3739,"Ġà¥¨":3740,"Ġà¤¬à¤¨":3741,"Ġà¤ĩà¤²":3742,"Ġà¤ħà¤µ":3743,"Ġà¤¤à¤²":3744,"Ġà¤Ĩà¤ķ":3745,"Ġà¤īà¤°":3746,"Ġà¤īà¤ªà¤¨":3747,"Ġà¤ĳà¤ķ":3748,"Ġà¤ĳà¤¸":3749,"Ġà¤ħà¤°à¤¬":3750,"Ġà¤ĵà¤¬":3751,"Ġà¤Ĩà¤¦à¤®":3752,"Ĩà®":3753,"à¤±":3754,"à¤¾'":3755,"à¤¾âĢĺ":3756,"à¤¾à¤ĥ":3757,"à¤°à¤Ī":3758,"à¤°à¤Ľ":3759,"à¤°à¤ł":3760,"à¤°à¤¨à¤°":3761,"à¤°à¤²à¤¯":3762,"à¤°à¤«à¤²":3763,"à¤°à¤¸à¤°à¤£":3764,"à¤¿à¥°":3765,"à¤¨à¤ªà¤°":3766,"à¤¨à¤ķà¤²":3767,"à¤¨à¤°à¤®":3768,"à¤¨à¤µà¤¸":3769,"à¤¨à¤²à¤ķ":3770,"à¤¨à¤Ĺà¤¨":3771,"à¤¨à¤Ĺà¤¢":3772,"à¤ķà¤Łà¤°":3773,"à¤ķà¤¢":3774,"à¤ķà¤¦à¤°":3775,"à¤ķà¤Łà¤¨":3776,"à¤ķà¤µà¤ķ":3777,"à¤¸à¤§":3778,"à¤¸à¤ķà¤²":3779,"à¤¸à¤ªà¤¨":3780,"à¤¸à¤Łà¤¨":3781,"à¤¸à¤«à¤°":3782,"à¤¸à¤Ĭà¤¦":3783,"à¤¤à¤§":3784,"à¤¤à¤«":3785,"à¤¤à¤ľà¤¨":3786,"à¤¤à¤ķà¤²":3787,"à¤¤à¤²à¤¤":3788,"à¤¤à¤Łà¤¸":3789,"à¤¤à¤¶à¤¤":3790,"à¤²à¤Ī":3791,"à¤²à¤µà¤°":3792,"à¤²à¤Ľ":3793,"à¤²à¤®à¤¨":3794,"à¤²à¤Ĺà¤°":3795,"à¤²à¤ļà¤°":3796,"à¥Ģà¤¼":3797,"à¥Ģà¤ģ":3798,"à¤®à¤Ľ":3799,"à¤®à¤¬à¤°":3800,"à¤®à¤°à¤®":3801,"à¤®à¤°à¤¹":3802,"à¤®à¤ļà¤¨":3803,"à¤®à¤ķà¤°à¤£":3804,"à¤®à¤®à¤¤":3805,"à¤Ĥ-":3806,"à¤Ĥà¤Ĥ":3807,"à¥ĩ.":3808,"à¥ĩà¥ĩ":3809,"à¥ĩâĢĿ":3810,"à¤µà¤«":3811,"à¤µà¤¤à¤°":3812,"à¤µà¤¸à¤®":3813,"à¤µà¤¯à¤¨":3814,"à¤µà¤¦à¤°":3815,"à¤µà¤ªà¤¤":3816,"à¤µà¤¬à¤¨":3817,"à¤µà¤£à¤ķ":3818,"à¤ªà¤¸à¤²":3819,"à¤ªà¤²à¤®":3820,"à¤ªà¤¥à¤¨":3821,"à¤ªà¤Ľà¤¤":3822,"à¥ĭ/":3823,"à¤¯à¤ĸ":3824,"à¤¯à¤ĺ":3825,"à¤¯à¤Łà¤°":3826,"à¤¯à¤ķà¤²":3827,"à¤¯à¤¦à¤°":3828,"à¤¯à¤¬à¤²":3829,"à¤¯à¤Ĺà¤¤":3830,"à¤¯à¤²à¤¯":3831,"à¤¯à¤¶à¤ķ":3832,"à¤¯à¤Łà¤ķ":3833,"à¤Łà¤Ł":3834,"à¤Łà¤¶":3835,"à¤Łà¤ļ":3836,"à¤Łà¤¹à¤¨":3837,"à¤Łà¤¤à¤®":3838,"à¤Łà¤²à¤°":3839,"à¤¦à¤§":3840,"à¤¦à¤ķà¤¤":3841,"à¤¦à¤¹à¤¨":3842,"à¤¦à¤¶à¤ķ":3843,"à¤¦à¤®à¤¯":3844,"à¤¦à¤¹à¤µ":3845,"à¤Ĺà¤ªà¤¤":3846,"à¤Ĺà¤Ĺà¤¨":3847,"à¤Ĺà¤«à¤²":3848,"à¤ľà¤ĸ":3849,"à¤ľà¤°à¤¤":3850,"à¤ľà¤®à¤¨":3851,"à¤ľà¤¸à¤¨":3852,"à¤ľà¤²à¤ķ":3853,"à¤ľà¤¤à¤¨":3854,"à¤ľà¤¯à¤¸":3855,"à¤ľà¤ķà¤¡":3856,"à¤ľà¤®à¤¹à¤²":3857,"à¤¬à¤¶":3858,"à¤¬à¤ĺ":3859,"à¤¬à¤µà¤¤":3860,"à¤¬à¤¬à¤²":3861,"à¤¬à¤Ĺà¤²":3862,"à¤¹à¤ļ":3863,"à¤¹à¤°à¤¤":3864,"à¤¹à¤ł":3865,"à¤¹à¤°à¤®":3866,"à¤¹à¤Łà¤¨":3867,"à¤¹à¤Łà¤¤":3868,"à¤¡à¤¹":3869,"à¤¶à¤«":3870,"à¤¶à¤²à¤¤":3871,"à¤¶à¤°à¤¦":3872,"à¤¶à¤²à¤®":3873,"à¤ļà¤¦":3874,"à¤ļà¤µà¤°":3875,"à¤ļà¤¤à¤°":3876,"à¤ļà¤°à¤ķ":3877,"à¤ļà¤Łà¤ķ":3878,"à¤ļà¤®à¤ķà¤¤":3879,"à¤ħà¤°à¤ķ":3880,"à¤ħà¤°à¤¸":3881,"à¤ħà¤¦à¤°":3882,"à¤ħà¤Ĺà¤°":3883,"à¤ħà¤ªà¤¦":3884,"à¤ħà¤µà¤²":3885,"à¤ħà¤¹à¤²":3886,"à¤ħà¤ļà¤®":3887,"à¤ħà¤¥à¤µ":3888,"à¤ħà¤ĸà¤£":3889,"à¤ħà¤¸à¤®à¤°":3890,"1042":3891,"1240":3892,"1253":3893,"1325":3894,"1919":3895,"1915":3896,"1916":3897,"1917":3898,"1928":3899,"1937":3900,"1933":3901,"1911":3902,"1935":3903,"1945":3904,"1987":3905,"1997":3906,"1990":3907,"1980":3908,"1921":3909,"1977":3910,"1988":3911,"1999":3912,"1931":3913,"1941":3914,"1998":3915,"1996":3916,"1908":3917,"1985":3918,"1994":3919,"1995":3920,"1993":3921,"1972":3922,"1971":3923,"1992":3924,"1812":3925,"1817":3926,"1829":3927,"1850":3928,"1839":3929,"1857":3930,"1840":3931,"1848":3932,"1890":3933,"1870":3934,"1889":3935,"1831":3936,"1863":3937,"1873":3938,"1895":3939,"1893":3940,"1892":3941,"1533":3942,"1511":3943,"1553":3944,"1629":3945,"1655":3946,"1644":3947,"1635":3948,"1672":3949,"1748":3950,"1789":3951,"1784":3952,"1795":3953,"2012":3954,"2019":3955,"2014":3956,"à¤§à¤Ĺ":3957,"à¤§à¤¬":3958,"à¤§à¤¨à¤µ":3959,"2500":3960,"à¤ıà¤Ŀ":3961,"à¤ıà¤¶à¤²":3962,"à¤«à¤µ":3963,"à¤«à¤«":3964,"à¤«à¤²à¤¨":3965,"à¤«à¤Łà¤ķ":3966,"à¤«à¤¹à¤®":3967,"à¤«à¤ĸà¤°":3968,"à¤·à¤²":3969,"à¤·à¤µ":3970,"à¤·à¤§à¤°":3971,"3000":3972,"à¤Ńà¤®":3973,"à¤Ńà¤ª":3974,"à¤Ńà¤ľ":3975,"à¤Ńà¤Ń":3976,"à¤Ńà¤Łà¤¨":3977,"à¤Ńà¤°à¤¨":3978,"à¤Ńà¤°à¤ª":3979,"à¤£à¤ľ":3980,"à¤£à¤¶":3981,"à¤£à¤§":3982,"à¤ĩà¤ĸ":3983,"à¤ĩà¤Ĺà¤°":3984,"à¤ĩà¤°à¤µ":3985,"à¤Ĩà¤ĵ":3986,"à¤Ĩà¤¸à¤®":3987,"à¤Ĩà¤ł":3988,"à¤Ĩà¤°à¤®":3989,"à¤Ĩà¤ªà¤¦":3990,"à¤Ĩà¤ĩà¤°":3991,"à¤Ĩà¤ĩà¤¬":3992,"à¤¥à¤ľ":3993,"à¤¥à¤ļ":3994,"à¤¥à¤Ń":3995,"à¤¥à¤°à¤¸":3996,"à¤¥à¤ªà¤¤":3997,"à¤ĸà¤µ":3998,"à¤ĸà¤ķà¤°":3999,"à¤īà¤¸à¤®":4000,"à¤īà¤¦à¤°":4001,"à¤īà¤Ĺà¤¤":4002,"à¤īà¤Ńà¤°à¤¤":4003,"à¤Īà¤¹":4004,"à¤Īà¤«":4005,"à¥ĩà¤Ĥ,":4006,"à¥ĩà¤Ĥ-":4007,"à¥ĩà¤Ĥà¤Ĥ":4008,"à¤ķà¤°à¤¶":4009,"à¤ķà¤°à¤ĺ":4010,"à¤ªà¤°à¤°":4011,"à¤ªà¤°à¤¤":4012,"à¤ªà¤°à¤¬":4013,"à¤ªà¤°à¤µà¤°":4014,"à¤ªà¤°à¤Ĺà¤¨":4015,"à¤µà¤°à¤µ":4016,"à¤ĵà¤¤":4017,"à¤ĵà¤Ĺ":4018,"à¤ĵà¤¹":4019,"à¤ĵà¤¢":4020,"à¤ĵà¤ıà¤®":4021,"à¤°à¤¤à¤²":4022,"à¤°à¤¤à¤µ":4023,"Ġà¤¸à¤ª":4024,"Ġà¤¸à¤¦":4025,"Ġà¤¸à¤°à¤¸":4026,"Ġà¤¸à¤¦à¤¨":4027,"à¥§à¥§à¥¨":4028,"à¤ĺà¤Łà¤¤":4029,"à¤¸à¤®à¤®":4030,"à¤¸à¤®à¤µ":4031,"à¤Ľà¤ľ":4032,"à¤Łà¤°à¤¸à¤¨":4033,"à¤łà¤Ĺ":4034,"à¤łà¤Ń":4035,"Ġà¤ķà¤Ł":4036,"Ġà¤ķà¤¶":4037,"Ġà¤ķà¤Ń":4038,"à¥¦à¥®":4039,"à¤ľà¤¨à¤¹":4040,"à¤°à¤ķà¤Ł":4041,"Ġà¤ªà¤¨":4042,"Ġà¤ªà¤¶":4043,"Ġà¤ªà¤ł":4044,"à¤ħà¤¨à¤ª":4045,"à¤ħà¤¨à¤¦":4046,"à¤ħà¤¨à¤ľ":4047,"à¤ħà¤¨à¤¬":4048,"à¤ħà¤¨à¤¹":4049,"à¤ħà¤¨à¤§":4050,"à¤®à¤¨à¤¦":4051,"à¤®à¤¨à¤ľ":4052,"à¤¸à¤°à¤µ":4053,"à¤¸à¤°à¤Ĺ":4054,"à¤¶à¤¨à¤¸":4055,"à¤¶à¤¨à¤¶":4056,"à¤ķà¤²à¤¸":4057,"à¤ķà¤²à¤¤":4058,"à¤ķà¤²à¤¶":4059,"à¤ķà¤²à¤ļ":4060,"à¤¬à¤°à¤¬":4061,"à¤¬à¤°à¤¹":4062,"à¤¬à¤°à¤«":4063,"à¥¨à¥§à¥¨":4064,"à¥¨à¥¦à¥¦à¥¦":4065,"à¥¨à¥¨à¥ª":4066,"à¤°à¤®à¤¶":4067,"à¤¯à¤°à¤¨":4068,"à¤¯à¤°à¤ª":4069,"à¤¯à¤°à¤¹":4070,"à¤¯à¤°à¤§":4071,"à¤¹à¤°à¤°":4072,"à¤¹à¤°à¤²":4073,"à¤¹à¤°à¤ª":4074,"à¤¹à¤°à¤¦":4075,"à¤¹à¤°à¤®à¤¨":4076,"à¥Īà¤Ĥ-":4077,"à¥Īà¤Ĥà¥¤":4078,"à¤¦à¤°à¤Ń":4079,"à¤®à¤¹à¤¨":4080,"à¤¸à¤¨à¤²":4081,"à¤ħà¤²à¤ķ":4082,"à¤ħà¤²à¤¬":4083,"à¤ªà¤¤à¤µ":4084,"à¤®à¤ķà¤µ":4085,"à¤®à¤ķà¤¬à¤°":4086,"à¤ĩà¤¨à¤ª":4087,"Ġà¤®à¤°":4088,"Ġà¤®à¤²":4089,"Ġà¤®à¤ľ":4090,"à¤°à¤£à¤¤":4091,"à¤°à¤£à¤¦":4092,"à¤ªà¤¨à¤ª":4093,"à¤¼à¥Ģà¤Ĥà¥¤":4094,"à¤ıà¤¸à¤Ĩà¤°":4095,"à¤°à¤µà¤ļà¤¨":4096,"Ġà¤µà¤ķ":4097,"à¤ıà¤ķà¤ľ":4098,"à¤ıà¤ķà¤¬":4099,"à¤Ŀà¤ªà¤Ł":4100,"Ġà¤°à¤ľ":4101,"à¤Łà¤¨à¤®":4102,"à¥©à¥¬":4103,"à¥©à¥©à¥¨":4104,"à¤²à¤ķà¤¤":4105,"à¤¼à¤¿âĢį":4106,"à¤ĳà¤µ":4107,"à¤ĳà¤²à¤®":4108,"à¤ĳà¤¨à¤²":4109,"à¤ĳà¤Ĺà¤¸":4110,"era":4111,"à¤Ĩà¤Īà¤¯":4112,"à¤Ĩà¤Īà¤Ĩà¤Īà¤Ł":4113,"à¤ķà¤¨à¤ķ":4114,"à¤ķà¤¨à¤¸":4115,"à¤¯à¤¤à¤¯":4116,"à¥«à¥§":4117,"à¥«à¥©":4118,"à¥«à¥¯":4119,"à¤¨à¤°à¤Ńà¤ķ":4120,"à¥Ģà¤Ĥ-":4121,"à¤Ĩà¤°à¤ıà¤¸":4122,"à¤ıà¤²à¤ľ":4123,"à¤ıà¤²à¤¬à¤®":4124,"ina":4125,"ink":4126,"iny":4127,"inter":4128,"indi":4129,"à¤īà¤¤à¤¨":4130,"à¤īà¤¤à¤°à¤¤":4131,"Ġà¤¨à¤ķ":4132,"Ġà¤¨à¤¹":4133,"Ġà¤¨à¤¹à¤°":4134,"à¤¡à¤°à¤¬":4135,"à¤¡à¤°à¤¬à¤°":4136,"à¤ıà¤¨à¤¡":4137,"à¤ıà¤¨à¤ĵ":4138,"à¤¤à¤¨à¤µ":4139,"à¤¤à¤¨à¤ľ":4140,"à¤¤à¤¨à¤¶":4141,"à¤®à¤²à¤¬":4142,"à¥ªà¥©":4143,"à¥Ńà¥®":4144,"à¥¬à¥©":4145,"à¥¬à¥¬":4146,"âĢĻâĢĻ":4147,"ana":4148,"à¤®à¤¤à¤²":4149,"à¤®à¤¤à¤µ":4150,"onom":4151,"Ġà¤¬à¤¡":4152,"Ġà¤¶à¤ķ":4153,"Ġà¤¶à¤°à¤£":4154,"à¤¸à¤²à¤°":4155,"à¤¸à¤²à¤µ":4156,"à¤ľà¤²à¤¤":4157,"à¤ľà¤²à¤Ĺ":4158,"à¤ľà¤²à¤ľ":4159,"enth":4160,"ence":4161,"à¤Ĭà¤¸":4162,"à¤Ĭà¤¬":4163,"à¤ĩà¤²à¤°":4164,"à¤ĩà¤²à¤¸":4165,"tis":4166,"tiv":4167,"tific":4168,"à¤Ĺà¤²à¤°":4169,"à¥®à¥¨":4170,"à¥®à¥«":4171,"à¥®à¥®":4172,"à¥®à¥¦à¥¦":4173,"arol":4174,"à¤¤à¤ķà¤¥":4175,"alis":4176,"alam":4177,"alysis":4178,"à¤ªà¤¦à¤®à¤¸":4179,"à¤¨à¤µà¤Ĺ":4180,"à¤¨à¤µà¤¶":4181,"à¤ħà¤ªà¤ļ":4182,"à¤°à¤¦à¤¯":4183,"à¤ĩà¤ķà¤Ł":4184,"Ġà¤Ĺà¤£":4185,"Ġà¤Ĺà¤£à¤°":4186,"à¤§à¤¨à¤ª":4187,"à¤¡à¤²à¤°":4188,"à¤µà¤²à¤°":4189,"à¤µà¤²à¤ªà¤®":4190,"à¤Ĳà¤Ĺ":4191,"à¤Ĳà¤ľ":4192,"à¤Ĳà¤¡":4193,"à¤Ĳà¤¶":4194,"esti":4195,"à¤¸à¤¹à¤¤":4196,"à¤¸à¤¹à¤ª":4197,"à¤¸à¤¹à¤®à¤¤":4198,"à¤¬à¤¹à¤¸":4199,"à¤¬à¤¹à¤¤":4200,"Ġà¤ľà¤Ĺà¤¨":4201,"Ġà¤ľà¤¯à¤¸":4202,"à¤¸à¤¤à¤¸":4203,"à¤¸à¤¤à¤²":4204,"à¤¸à¤¤à¤ª":4205,"à¤¤à¤®à¤Ĺ":4206,"orm":4207,"à¤°à¤ľà¤®":4208,"à¤®à¤¦à¤¤":4209,"à¤Ķà¤¬":4210,"à¤Ķà¤ļ":4211,"à¤Ķà¤°à¤¤":4212,"à¤ªà¤²à¤Ł":4213,"à¤ıà¤«à¤¡":4214,"à¤²à¤Ĺà¤Ńà¤Ĺ":4215,"ise":4216,"ick":4217,"ico":4218,"à¤īà¤¨à¤¶":4219,"à¤¤à¤²à¤Ľà¤Ł":4220,"à¤ľà¤¯à¤¶":4221,"à¤¬à¤¦à¤²à¤¨":4222,"ats":4223,"ator":4224,"Ġà¤¯à¤ľ":4225,"ass":4226,"ole":4227,"à¤Ĩà¤¯à¤ķà¤°":4228,"à¤Ĺà¤®à¤£":4229,"à¤Ĺà¤£à¤ªà¤¤":4230,"à¤Ĩà¤¦à¤¤":4231,"à¤ªà¤¡à¤¤":4232,"Ġà¤ļà¤¤":4233,"chi":4234,"chron":4235,"rad":4236,"radi":4237,"rajas":4238,"eder":4239,"edit":4240,"Ġà¤¤à¤Ł":4241,"Ġà¤ħà¤ªà¤°":4242,"à¤ıà¤ļà¤Ĩà¤Ī":4243,"eth":4244,"ett":4245,"à¤µà¤ľà¤¹":4246,"ella":4247,"Ġà¤«à¤²à¤¨":4248,"à¥¨à¥¦à¥§à¥©":4249,"à¥¨à¥¦à¥©à¥Ń":4250,"à¤¦à¤²à¤ªà¤¤":4251,"à¤¦à¤²à¤¦à¤²":4252,"à¤ªà¤£à¤¨":4253,"urr":4254,"à¤²à¤¡à¤ķ":4255,"à¤¯à¤£à¤¤":4256,"à¥§à¥«à¥§":4257,"ste":4258,"ster":4259,"stall":4260,"ther":4261,"than":4262,"thor":4263,"thir":4264,"à¤ħà¤«à¤µ":4265,"ille":4266,"à¥§à¥¨à¥¦":4267,"à¥§à¥¨à¥¦à¥¦":4268,"à¤¶à¤µà¤¦":4269,"à¤īà¤¡à¤¸":4270,"Ġà¤Ĩà¤¸":4271,"Ġà¤Ĩà¤ľ":4272,"à¤¨à¤Ĺà¤°à¤µ":4273,"à¤¨à¤Ĺà¤°à¤ª":4274,"à¤¨à¤¹à¤Ł":4275,"à¤¶à¤®à¤¶":4276,"à¤¹à¤ľà¤¹":4277,"à¥Ĥà¤ģà¥¤":4278,"ree":4279,"à¤ĵà¤°à¤Ľ":4280,"ations":4281,"ational":4282,"ulation":4283,"à¤¯à¤¶à¤¸":4284,"à¤¸à¤ľà¤¦":4285,"à¤īà¤łà¤¤":4286,"rid":4287,"und":4288,"à¤¦à¤¶à¤¹à¤°":4289,"ogen":4290,"ogra":4291,"oss":4292,"osis":4293,"Ġà¤ľà¤¨à¤¤":4294,"Ġà¤ľà¤¨à¤ľ":4295,"Ġà¤ľà¤¨à¤°à¤²":4296,"à¤²à¤Ńà¤¦":4297,"à¤¸à¤®à¤Ŀà¤¤":4298,"à®¾":4299,"à®Ĩà®":4300,"à¤Ĩà¤ĩà¤«":4301,"à¤Ĩà¤ĩà¤ķà¤¨":4302,"à¤Ĩà¤ĩà¤¸à¤²":4303,"à¤Ńà¤Ĺà¤µà¤¨":4304,"irc":4305,"à¤ħà¤°à¤¬à¤ªà¤¤":4306,"Char":4307,"liv":4308,"ubl":4309,"à¥¨à¥¦à¥¦à¥®":4310,"à¥¨à¥¦à¥¦à¥¯":4311,"ider":4312,"idales":4313,"à¤įà¤¸":4314,"à¤įà¤ª":4315,"Ind":4316,"aya":4317,"Ġà¤ĺà¤¨à¤¤":4318,"à¤ķà¤łà¤ª":4319,"mental":4320,"rich":4321,"Engl":4322,"Environment":4323,"à¤īà¤¤à¤°à¤¨":4324,"ologies":4325,"ological":4326,"MPEG":4327,"igh":4328,"ign":4329,"à¥§à¥¯à¥®à¥Ń":4330,"ative":4331,"https":4332,"à¯ģ":4333,"Ġà¤ĵà¤µà¤²":4334,"Ġà¤ıà¤¯à¤°à¤µ":4335,"ound":4336,"stit":4337,"Ø±Ùħ":4338,"à²ª":4339,"Ġà¤īà¤ªà¤Ĺ":4340,"Ġà¤īà¤ªà¤ļ":4341,"echn":4342,"à¤ĩà¤ªà¤°à¤²":4343,"formation":4344,"New":4345,"Serv":4346,"pores":4347,"sensi":4348,"à¤Ŀà¤²à¤ķà¤¤":4349,"Exc":4350,"carbon":4351,"Ã¤n":4352,"ometer":4353,"region":4354,"electro":4355,"factor":4356,"opteridales":4357,"Open":4358,"United":4359,"rajasthan":4360,"'-":4361,"-'":4362,".âĢĿ":4363,"2200":4364,"610":4365,"613":4366,"617":4367,"650":4368,"636":4369,"637":4370,"656":4371,"659":4372,"658":4373,"648":4374,"647":4375,"649":4376,"646":4377,"660":4378,"655":4379,"611":4380,"635":4381,"622":4382,"668":4383,"653":4384,"632":4385,"642":4386,"631":4387,"641":4388,"6120":4389,"6500":4390,"6234":4391,"713":4392,"723":4393,"725":4394,"729":4395,"730":4396,"737":4397,"757":4398,"759":4399,"758":4400,"740":4401,"748":4402,"749":4403,"760":4404,"755":4405,"711":4406,"735":4407,"722":4408,"745":4409,"768":4410,"743":4411,"787":4412,"780":4413,"788":4414,"799":4415,"766":4416,"741":4417,"7100":4418,"7126":4419,"7194":4420,"810":4421,"817":4422,"820":4423,"829":4424,"850":4425,"857":4426,"859":4427,"858":4428,"840":4429,"847":4430,"860":4431,"833":4432,"835":4433,"890":4434,"880":4435,"821":4436,"832":4437,"852":4438,"851":4439,"8400":4440,"8000":4441,"8903":4442,"912":4443,"918":4444,"916":4445,"917":4446,"925":4447,"928":4448,"927":4449,"926":4450,"950":4451,"934":4452,"940":4453,"947":4454,"949":4455,"933":4456,"911":4457,"935":4458,"969":4459,"988":4460,"9500":4461,"9001":4462,"AO":4463,"AP":4464,"Ac":4465,"Ad":4466,"Af":4467,"Ag":4468,"As":4469,"Au":4470,"AID":4471,"Ass":4472,"Amad":4473,"BM":4474,"BN":4475,"Ben":4476,"Bat":4477,"Bas":4478,"Bol":4479,"Bul":4480,"Bab":4481,"Bub":4482,"BAS":4483,"Boh":4484,"CF":4485,"CG":4486,"Ci":4487,"Cat":4488,"Col":4489,"Cam":4490,"Cent":4491,"Cric":4492,"CII":4493,"Cap":4494,"Cons":4495,"DB":4496,"DC":4497,"DF":4498,"DL":4499,"DM":4500,"DR":4501,"DW":4502,"Du":4503,"Dy":4504,"Des":4505,"Dol":4506,"Dum":4507,"Dist":4508,"Dest":4509,"DNA":4510,"Dav":4511,"Div":4512,"EU":4513,"EX":4514,"Ed":4515,"Es":4516,"Eli":4517,"EET":4518,"FO":4519,"FT":4520,"Fe":4521,"Fi":4522,"Fer":4523,"Fran":4524,"From":4525,"Fort":4526,"FBI":4527,"Flash":4528,"GE":4529,"GP":4530,"GU":4531,"Ge":4532,"Gr":4533,"Gar":4534,"Gren":4535,"Gold":4536,"Goog":4537,"Hi":4538,"Hu":4539,"Hon":4540,"Har":4541,"Hal":4542,"Hell":4543,"HLA":4544,"IL":4545,"Is":4546,"INH":4547,"INS":4548,"Je":4549,"Jo":4550,"Jul":4551,"Jag":4552,"Jack":4553,"KA":4554,"KO":4555,"Ku":4556,"Ken":4557,"LG":4558,"Lim":4559,"Low":4560,"Long":4561,"Law":4562,"MB":4563,"MR":4564,"Mg":4565,"Mo":4566,"Mt":4567,"Mal":4568,"Mess":4569,"Mah":4570,"MNS":4571,"Micro":4572,"NW":4573,"No":4574,"Nal":4575,"NET":4576,"Nov":4577,"OR":4578,"OT":4579,"Our":4580,"Ori":4581,"PD":4582,"PF":4583,"Pal":4584,"PET":4585,"POS":4586,"Page":4587,"PPI":4588,"PGA":4589,"Psit":4590,"Publ":4591,"Qo":4592,"RA":4593,"RB":4594,"RS":4595,"Ret":4596,"Rec":4597,"Rub":4598,"Rost":4599,"ROS":4600,"River":4601,"RCA":4602,"SG":4603,"SN":4604,"Sa":4605,"Se":4606,"Sk":4607,"Sl":4608,"Sn":4609,"San":4610,"Son":4611,"Sol":4612,"Sch":4613,"Sel":4614,"Sur":4615,"Sum":4616,"Sec":4617,"Ste":4618,"Sta":4619,"Sant":4620,"SAT":4621,"Sev":4622,"Sear":4623,"Scr":4624,"TV":4625,"Ter":4626,"Tel":4627,"Tak":4628,"Test":4629,"Tex":4630,"TÃ¼":4631,"There":4632,"Techn":4633,"UN":4634,"UP":4635,"UR":4636,"UV":4637,"Ud":4638,"Un":4639,"UMT":4640,"Vol":4641,"VLA":4642,"WF":4643,"Wan":4644,"War":4645,"Wor":4646,"Was":4647,"Wol":4648,"Web":4649,"Water":4650,"XA":4651,"XI":4652,"XP":4653,"YM":4654,"You":4655,"aP":4656,"ain":4657,"aol":4658,"app":4659,"aff":4660,"atical":4661,"ba":4662,"bar":4663,"bic":4664,"bran":4665,"bear":4666,"ball":4667,"bution":4668,"ca":4669,"cm":4670,"cin":4671,"ction":4672,"cre":4673,"cop":4674,"cast":4675,"den":4676,"dor":4677,"ep":4678,"ez":4679,"eil":4680,"fin":4681,"fan":4682,"fti":4683,"far":4684,"fus":4685,"ful":4686,"fut":4687,"foo":4688,"feed":4689,"gy":4690,"gin":4691,"gol":4692,"gle":4693,"gra":4694,"gÃ¤n":4695,"hal":4696,"his":4697,"ham":4698,"hem":4699,"hist":4700,"hod":4701,"iB":4702,"if":4703,"io":4704,"ius":4705,"idi":4706,"iform":4707,"iety":4708,"kas":4709,"ly":4710,"len":4711,"lag":4712,"lia":4713,"low":4714,"long":4715,"mn":4716,"min":4717,"mol":4718,"med":4719,"mac":4720,"mun":4721,"mem":4722,"mech":4723,"ng":4724,"nh":4725,"no":4726,"non":4727,"nes":4728,"ning":4729,"nam":4730,"nec":4731,"nob":4732,"oti":4733,"oet":4734,"ode":4735,"ple":4736,"pet":4737,"pine":4738,"pow":4739,"phy":4740,"prec":4741,"rÃ":4742,"rum":4743,"sa":4744,"su":4745,"sim":4746,"she":4747,"sity":4748,"smo":4749,"sanit":4750,"tw":4751,"ty":4752,"tro":4753,"tac":4754,"tri":4755,"uter":4756,"udi":4757,"va":4758,"ves":4759,"voic":4760,"wing":4761,"wind":4762,"ward":4763,"water":4764,"work":4765,"xim":4766,"yo":4767,"yr":4768,"yÃ":4769,"yur":4770,"ypt":4771,"ystem":4772,"zh":4773,"zi":4774,"zon":4775,"zes":4776,"zoit":4777,"zgÃ¤n":4778,"°à®®":4779,"±į":4780,"¸Ń":4781,"ºÎ":4782,"Â·":4783,"Â¸":4784,"Ã¨":4785,"Ã±":4786,"Ãī":4787,"Å¡":4788,"Åį":4789,"ÎĶ":4790,"ÎºÎ":4791,"Ð»":4792,"Ð¼":4793,"Ó¹":4794,"×Ļ":4795,"Ø£":4796,"Øª":4797,"Øµ":4798,"Ø·":4799,"Øº":4800,"Ú¯":4801,"à±į":4802,"ä¸Ń":4803,"åº":4804,"åľ":4805,"æ°":4806,"èĥ":4807,"ï¿":4808,"Ġ20":4809,"Ġà¥§":4810,"Ġà¤¢":4811,"Ġà¤Ĺà¤°":4812,"Ġà¤¨à¤°":4813,"Ġà¤ıà¤²":4814,"Ġà¤¡à¤°":4815,"Ġà¤ĩà¤Ł":4816,"Ġà¤ħà¤¸":4817,"Ġà¤¤à¤ķ":4818,"Ġà¤ĩà¤ķ":4819,"Ġà¤¤à¤¤":4820,"Ġà¤ıà¤¡":4821,"Ġà¤ĩà¤®":4822,"Ġà¤Ĩà¤¦":4823,"Ġà¤ıà¤ļ":4824,"Ġà¤īà¤²":4825,"Ġà¤īà¤ļ":4826,"Ġà¤ıà¤°":4827,"Ġà¤ľà¤²à¤µ":4828,"Ġà¤Ķà¤¦":4829,"Ġà¤īà¤®à¤°":4830,"ĠNT":4831,"ĠIII":4832,"ĭè":4833,"à¤´":4834,"à¥Ħ":4835,"à¥Ĩ":4836,"à¥Ĳ":4837,"à¤¾à¤¿":4838,"à¤¾à¥ĩ":4839,"à¤¾à¥ĩà¤Ĥ":4840,"à¥įà¤¾":4841,"à¥įâĢĻ":4842,"à¥įà¤¾à¤¾":4843,"à¤°à¤ªà¤°":4844,"à¤°à¤¸à¤°":4845,"à¤°à¤Ĺà¤°":4846,"à¤°à¤Łà¤¨":4847,"à¤°à¤¯à¤¤":4848,"à¤°à¤§à¤°":4849,"à¤°à¤Īà¤¸":4850,"à¤°à¤ļà¤ķ":4851,"à¤°à¤ĸà¤°":4852,"à¤°à¤Ĩà¤¨":4853,"à¤°à¤ļà¤¤":4854,"à¤°à¤°à¤¥":4855,"à¤°à¤ªà¤°à¤ķ":4856,"à¤¿à¥į":4857,"à¤¨à¤¤à¤°":4858,"à¤¨à¤ĺ":4859,"à¤¨à¤µà¤¨":4860,"à¤¨à¤°à¤µ":4861,"à¤¨à¤®à¤°":4862,"à¤¨à¤¬à¤²":4863,"à¤¨à¤¯à¤¤":4864,"à¤¨à¤Ĺà¤¤":4865,"à¤¨à¤ļà¤°":4866,"à¤¨à¤ķà¤¤":4867,"à¤¨à¤®à¤¸":4868,"à¤¨à¤¨à¤ķ":4869,"à¤¨à¤¡à¤¨":4870,"à¤¨à¤Ńà¤°":4871,"à¤¨à¤ľà¤¨à¤ķ":4872,"à¤ķà¤®à¤¨":4873,"à¤ķà¤ļà¤°":4874,"à¤ķà¤¹à¤¨":4875,"à¤ķà¤ªà¤¦":4876,"à¤ķà¤ªà¤Ł":4877,"à¤ķà¤Ĺà¤£":4878,"à¤ķà¤³":4879,"à¤ķà¤¤à¤°à¤¨":4880,"à¤¸à¤£":4881,"à¤¸à¤°à¤¤":4882,"à¤¸à¤ĺ":4883,"à¤¸à¤ł":4884,"à¤¸à¤µà¤¨":4885,"à¤¸à¤²à¤¨":4886,"à¤¸à¤¬à¤²":4887,"à¤¸à¤ķà¤¨":4888,"à¤¸à¤¡à¤°":4889,"à¤¸à¤¤à¤ķ":4890,"à¤¸à¤¶à¤ķ":4891,"à¤¸à¤īà¤¦":4892,"à¤¸à¤ļà¤®":4893,"à¤¸à¤Īà¤¦":4894,"à¤¸à¤ĩà¤¹":4895,"à¤¤à¤¸à¤°":4896,"à¤¤à¤¬à¤°":4897,"à¤¤à¤¦à¤°":4898,"à¤¤à¤Ĺà¤°":4899,"à¤¤à¤²à¤¨":4900,"à¤¤à¤ļà¤°":4901,"à¤¤à¤¦à¤¨":4902,"à¤¤à¤®à¤¸":4903,"à¤¤à¤¬à¤¸":4904,"à¤¤à¤Łà¤¬":4905,"à¤²à¤ł":4906,"à¤²à¤°à¤ķ":4907,"à¤²à¤¶à¤¨":4908,"à¤²à¤¸à¤¨":4909,"à¤²à¤µà¤¨":4910,"à¤²à¤ªà¤¤":4911,"à¤²à¤°à¤¹":4912,"à¤²à¤Łà¤¨":4913,"à¤²à¤¯à¤®":4914,"à¤²à¤®à¤¤":4915,"à¤²à¤ªà¤¹":4916,"à¤²à¤ļà¤ķ":4917,"à¤²à¤¡à¤¨":4918,"à¥Ģà¤¿à¤Ĥ":4919,"à¥Ģà¤ĥ":4920,"à¥ĢâĢĮ":4921,"à¤®à¤Łà¤°":4922,"à¤®à¤¯à¤¨":4923,"à¤®à¤Ĺà¤°":4924,"à¤®à¤ªà¤¤":4925,"à¤®à¤Ŀ":4926,"à¤®à¤¯à¤¤":4927,"à¤®à¤Ĺà¤¤":4928,"à¤®à¤Ĺà¤²":4929,"à¤®à¤Ĺà¤¢":4930,"à¤®à¤®à¤¯":4931,"à¤®à¤¬à¤¤":4932,"à¤®à¤¥à¤¨":4933,"à¤Ĥ.":4934,"à¤Ĥ/":4935,"à¥ĩà¤¾":4936,"à¥ĩà¥į":4937,"à¥ĩâĢį":4938,"à¤µà¤·":4939,"à¤µà¤Ī":4940,"à¤µà¤ªà¤°":4941,"à¤µà¤Ľ":4942,"à¤µà¤¯à¤ķ":4943,"à¤µà¤§à¤°":4944,"à¤µà¤ªà¤ķ":4945,"à¤µà¤Ĺà¤¨":4946,"à¤µà¤¶à¤ķ":4947,"à¤µà¤ļà¤ķ":4948,"à¤µà¤¯à¤µ":4949,"à¤µà¤Ĺà¤¢":4950,"à¤ªà¤§":4951,"à¤ªà¤ı":4952,"à¤ªà¤Ń":4953,"à¤ªà¤ķà¤²":4954,"à¤ªà¤²à¤¨":4955,"à¤ªà¤ķà¤¨":4956,"à¤ªà¤ļà¤°":4957,"à¤ªà¤µà¤¹":4958,"à¤ªà¤¥à¤®":4959,"à¥ĭ,":4960,"à¤¯à¤ı":4961,"à¤¯à¤«":4962,"à¤¯à¤¸à¤®":4963,"à¤¯à¤ľà¤¨":4964,"à¤¯à¤¬à¤°":4965,"à¤¯à¤Łà¤¨":4966,"à¤¯à¤²à¤ķ":4967,"à¤¯à¤µà¤¤":4968,"à¤¯à¤§à¤°":4969,"à¤¯à¤µà¤ķ":4970,"à¤¯à¤ļà¤ķ":4971,"à¤¯à¤Ĺà¤¢":4972,"à¤¯à¤ľà¤®":4973,"à¤¯à¤Ĺà¤¡":4974,"à¤¯à¤¶à¤µ":4975,"à¤¯à¤Ńà¤Ł":4976,"à¤Łà¤ĩ":4977,"à¤Łà¤Ľ":4978,"à¤Łà¤²à¤ķ":4979,"à¤Łà¤Ĺà¤¨":4980,"à¤Łà¤ħà¤ª":4981,"à¤¦à¤Ń":4982,"à¤¦à¤ĺ":4983,"à¤¦à¤®à¤¨":4984,"à¤¦à¤¯à¤¨":4985,"à¤¦à¤°à¤®":4986,"à¤¦à¤µà¤¤":4987,"à¤¦à¤¹à¤²":4988,"à¤¦à¤¬à¤¦":4989,"à¤¦à¤¶à¤°":4990,"à¤¦à¤Ĺà¤¡":4991,"à¤¦à¤¶à¤µ":4992,"à¤¦à¤ĸà¤²":4993,"à¤¦à¤µà¤ª":4994,"à¤¦à¤®à¤¨à¤ķ":4995,"à¤Ĺà¤¥":4996,"à¤Ĺà¤ĺ":4997,"à¤Ĺà¤ľà¤¨":4998,"à¤Ĺà¤°à¤ķ":4999,"à¤Ĺà¤¤à¤¨":5000,"à¤Ĺà¤®à¤²":5001,"à¤Ĺà¤ľà¤°":5002,"à¤Ĺà¤µà¤²":5003,"à¤Ĺà¤¡à¤¨":5004,"à¤Ĺà¤Ńà¤Ł":5005,"à¤Ĺà¤Ĭà¤°":5006,"à¥ģà¥¤":5007,"à¥ģâĢį":5008,"à¤ľà¤«":5009,"à¤ľà¤Ī":5010,"à¤ľà¤ªà¤°":5011,"à¤ľà¤¸à¤®":5012,"à¤ľà¤¹à¤°":5013,"à¤ľà¤Ĺà¤°":5014,"à¤ľà¤¯à¤¤":5015,"à¤ľà¤¸à¤¤":5016,"à¤ľà¤¸à¤µ":5017,"à¤ľà¤¸à¤ª":5018,"à¤ľà¤Ĺà¤¢":5019,"à¤ľà¤¬à¤ķ":5020,"à¤¬à¤ĩ":5021,"à¤¬à¤ķà¤²":5022,"à¤¬à¤Łà¤¨":5023,"à¤¬à¤ļà¤¨":5024,"à¤¬à¤¤à¤¨":5025,"à¤¬à¤ľà¤°":5026,"à¤¬à¤ĺà¤°":5027,"à¤¬à¤Ĺà¤¦":5028,"à¤¬à¤°à¤¤à¤¨":5029,"à¤¹à¤¹":5030,"à¤¹à¤¶":5031,"à¤¹à¤§":5032,"à¤¹à¤ı":5033,"à¤¹à¤ĸ":5034,"à¤¹à¤°à¤ķ":5035,"à¤¹à¤®à¤¨":5036,"à¤¹à¤µà¤¨":5037,"à¤¹à¤¬à¤²":5038,"à¤¹à¤²à¤°":5039,"à¤¹à¤²à¤µ":5040,"à¤¹à¤°à¤ķà¤¤":5041,"à¤¡à¤ļ":5042,"à¤¡à¤ı":5043,"à¤¡à¤µà¤°":5044,"à¤¡à¤°à¤¤":5045,"à¤¡à¤°à¤¸":5046,"à¤¡à¤¯à¤¨":5047,"à¤¡à¤®à¤°":5048,"à¤¡à¤²à¤ķ":5049,"à¤¡à¤¨à¤°":5050,"à¤¡à¤®à¤²":5051,"à¤¡à¤ķà¤Ł":5052,"à¤¡à¤ļà¤®":5053,"à¤¡à¤ķà¤°à¤µ":5054,"à¤¡à¤°à¤¸à¤¨":5055,"à¤¡à¤Ĺà¤²à¤¸":5056,"à¤¶à¤¡":5057,"à¤¶à¤ķà¤°":5058,"à¤¶à¤µà¤°":5059,"à¤¶à¤¤à¤°":5060,"à¤¶à¤®à¤¨":5061,"à¤¶à¤¸à¤¨":5062,"à¤¶à¤ªà¤¤":5063,"à¤¶à¤Ĺà¤¤":5064,"à¤¶à¤¤à¤ķ":5065,"à¤¶à¤ķà¤¤":5066,"à¤¶à¤²à¤°":5067,"à¤¶à¤Ńà¤ķ":5068,"à¤¶à¤¹à¤ľ":5069,"à¤ļà¤Ń":5070,"à¤ļà¤ĸ":5071,"à¤ļà¤Łà¤°":5072,"à¤ļà¤Łà¤¨":5073,"à¤ļà¤¤à¤¨":5074,"à¤ļà¤¤à¤®":5075,"à¤ļà¤¹à¤²":5076,"à¤ļà¤Ļ":5077,"à¤ļà¤Łà¤Ĺ":5078,"à¤ħà¤ı":5079,"à¤ħà¤ĺ":5080,"à¤ħà¤Łà¤°":5081,"à¤ħà¤ľà¤¨":5082,"à¤ħà¤¸à¤°":5083,"à¤ħà¤ķà¤²":5084,"à¤ħà¤¯à¤¨":5085,"à¤ħà¤°à¤®":5086,"à¤ħà¤¹à¤°":5087,"à¤ħà¤¸à¤¨":5088,"à¤ħà¤Ŀ":5089,"à¤ħà¤§à¤°":5090,"à¤ħà¤®à¤²":5091,"à¤ħà¤ľà¤°":5092,"à¤ħà¤ľà¤²":5093,"à¤ħà¤ļà¤°":5094,"à¤ħà¤ľà¤®":5095,"à¤ħà¤ľà¤µ":5096,"à¤ħà¤¥à¤°":5097,"1015":5098,"1020":5099,"1024":5100,"1050":5101,"1034":5102,"1054":5103,"1044":5104,"1097":5105,"1089":5106,"1076":5107,"1007":5108,"1075":5109,"1071":5110,"10334":5111,"10101":5112,"100000":5113,"1214":5114,"1220":5115,"1250":5116,"1236":5117,"1254":5118,"1248":5119,"1211":5120,"1200":5121,"1269":5122,"1286":5123,"1251":5124,"1296":5125,"1207":5126,"1284":5127,"1265":5128,"1285":5129,"1272":5130,"12428":5131,"12427":5132,"12000":5133,"1312":5134,"1317":5135,"1334":5136,"1360":5137,"1300":5138,"1353":5139,"1380":5140,"1399":5141,"1370":5142,"1342":5143,"1386":5144,"1341":5145,"1351":5146,"1309":5147,"1362":5148,"1393":5149,"1910":5150,"1913":5151,"1918":5152,"1914":5153,"1920":5154,"1923":5155,"1925":5156,"1924":5157,"1927":5158,"1926":5159,"1929":5160,"1934":5161,"1936":5162,"1938":5163,"1956":5164,"1954":5165,"1958":5166,"1940":5167,"1948":5168,"1947":5169,"1949":5170,"1955":5171,"1944":5172,"1922":5173,"1900":5174,"1943":5175,"1953":5176,"1966":5177,"1989":5178,"1932":5179,"1942":5180,"1952":5181,"1979":5182,"1951":5183,"1978":5184,"1976":5185,"1907":5186,"1909":5187,"1963":5188,"1964":5189,"1984":5190,"1974":5191,"1965":5192,"1973":5193,"1975":5194,"1983":5195,"1962":5196,"1982":5197,"1981":5198,"1819":5199,"1818":5200,"1814":5201,"1816":5202,"1825":5203,"1828":5204,"1824":5205,"1830":5206,"1834":5207,"1836":5208,"1837":5209,"1838":5210,"1856":5211,"1859":5212,"1854":5213,"1858":5214,"1847":5215,"1849":5216,"1846":5217,"1860":5218,"1855":5219,"1844":5220,"1811":5221,"1822":5222,"1845":5223,"1868":5224,"1869":5225,"1843":5226,"1853":5227,"1887":5228,"1897":5229,"1821":5230,"1877":5231,"1888":5232,"1842":5233,"1852":5234,"1886":5235,"1841":5236,"1851":5237,"1898":5238,"1896":5239,"1808":5240,"1806":5241,"1807":5242,"1864":5243,"1884":5244,"1874":5245,"1875":5246,"1883":5247,"1894":5248,"1862":5249,"1872":5250,"1882":5251,"1871":5252,"1891":5253,"18400":5254,"1510":5255,"1517":5256,"1528":5257,"1530":5258,"1550":5259,"1534":5260,"1539":5261,"1556":5262,"1558":5263,"1555":5264,"1544":5265,"1500":5266,"1545":5267,"1587":5268,"1597":5269,"1570":5270,"1542":5271,"1531":5272,"1509":5273,"1563":5274,"1584":5275,"1562":5276,"1582":5277,"1571":5278,"1591":5279,"1581":5280,"1412":5281,"1415":5282,"1429":5283,"1430":5284,"1437":5285,"1458":5286,"1433":5287,"1444":5288,"1443":5289,"1487":5290,"1490":5291,"1480":5292,"1452":5293,"1476":5294,"1473":5295,"1483":5296,"1471":5297,"1491":5298,"1492":5299,"14000":5300,"1618":5301,"1616":5302,"1617":5303,"1620":5304,"1636":5305,"1639":5306,"1656":5307,"1622":5308,"1645":5309,"1668":5310,"1667":5311,"1653":5312,"1687":5313,"1690":5314,"1680":5315,"1688":5316,"1699":5317,"1666":5318,"1670":5319,"1632":5320,"1631":5321,"1641":5322,"1651":5323,"1698":5324,"1606":5325,"1664":5326,"1685":5327,"1662":5328,"1682":5329,"1681":5330,"16000":5331,"1712":5332,"1713":5333,"1714":5334,"1716":5335,"1720":5336,"1723":5337,"1728":5338,"1730":5339,"1750":5340,"1738":5341,"1740":5342,"1749":5343,"1755":5344,"1722":5345,"1700":5346,"1745":5347,"1768":5348,"1743":5349,"1787":5350,"1790":5351,"1780":5352,"1788":5353,"1766":5354,"1770":5355,"1786":5356,"1778":5357,"1798":5358,"1708":5359,"1707":5360,"1763":5361,"1774":5362,"1773":5363,"1775":5364,"1783":5365,"1771":5366,"1791":5367,"1781":5368,"1792":5369,"à¤¼à¤¼":5370,"à¤¼à¥Īà¤Ĥ":5371,"à¤¼âĢĭ":5372,"2025":5373,"2024":5374,"2030":5375,"2050":5376,"2022":5377,"2021":5378,"2088":5379,"2079":5380,"2075":5381,"20000":5382,"à¥Īà¤ģ":5383,"à¥ĪâĢĶ":5384,"à¤§à¤ļ":5385,"à¤§à¤µà¤°":5386,"à¤§à¤°à¤®":5387,"à¤§à¤°à¤£":5388,"à¤§à¤¨à¤°":5389,"à¤§à¤¹à¤¸":5390,"2326":5391,"2349":5392,"2515":5393,"2534":5394,"2800":5395,"2865":5396,"28000":5397,"2457":5398,"24000":5399,"24501":5400,"2722":5401,"2784":5402,"2795":5403,"2600":5404,"à¤ıà¤§":5405,"à¤ıà¤·":5406,"à¤ıà¤Ī":5407,"à¤ıà¤®à¤¨":5408,"à¤ıà¤°à¤®":5409,"à¤ıà¤®à¤ķ":5410,"à¤ıà¤ªà¤¨":5411,"à¤ıà¤¬à¤²":5412,"à¤ıà¤Łà¤®":5413,"à¤ıà¤ıà¤¸à¤¸":5414,"à¤ıà¤¯à¤°à¤¸":5415,"à¤ıà¤ıà¤«à¤¸":5416,"à¤ıà¤ıà¤¨à¤ıà¤¸":5417,"2957":5418,"2900":5419,"à¤«à¤®":5420,"à¤«à¤¬":5421,"à¤«à¤¹":5422,"à¤«à¤¹à¤°":5423,"à¤«à¤¨à¤°":5424,"à¤«à¤ľà¤²":5425,"à¤«à¤¤à¤µ":5426,"à¤«à¤¨à¤®":5427,"à¤«à¤²à¤¸":5428,"à¤·à¤Ł":5429,"à¤·à¤Ĺ":5430,"à¤·à¤¹":5431,"à¤·à¤¹à¤°":5432,"à¤·à¤¦à¤°":5433,"à¤·à¤°à¤£":5434,"à¤·à¤ļà¤¨":5435,"à¤·à¤¯à¤µ":5436,"à¤·à¤®à¤¯":5437,"à¤·à¤ľà¤¨à¤ķ":5438,"3042":5439,"5000":5440,"5007":5441,"3600":5442,"3712":5443,"3768":5444,"37514":5445,"5747":5446,"56538":5447,"56000":5448,"5900":5449,"5977":5450,"59163":5451,"5400":5452,"à¤Ńà¤¶":5453,"à¤Ńà¤ķà¤°":5454,"à¤Ńà¤ľà¤¨":5455,"à¤Ńà¤°à¤µ":5456,"à¤Ńà¤µà¤¸":5457,"à¤Ńà¤¦à¤¨":5458,"à¤Ńà¤Łà¤ķ":5459,"à¤Ńà¤¡à¤ķ":5460,"à¤Ńà¤Ĺà¤¦":5461,"à¤£à¤ļà¤¨":5462,"à¤£à¤ªà¤¶":5463,"à¤£à¤Ńà¤Ł":5464,"à¤ĩà¤ķà¤°":5465,"à¤ĩà¤°à¤¤":5466,"à¤ĩà¤¤à¤°":5467,"à¤ĩà¤¸à¤¨":5468,"à¤ĩà¤§à¤°":5469,"à¤ĩà¤Ĺà¤²":5470,"à¤ĩà¤®à¤¸":5471,"à¤ĩà¤ªà¤²":5472,"à¤ĩà¤Ĩà¤ķ":5473,"à¤ĩà¤ĳà¤ķ":5474,"4000":5475,"4069":5476,"4875":5477,"4689":5478,"à¤Ĩà¤£":5479,"à¤Ĩà¤ĺ":5480,"à¤Ĩà¤¢":5481,"à¤Ĩà¤¹à¤°":5482,"à¤Ĩà¤¸à¤¨":5483,"à¤Ĩà¤ªà¤¤":5484,"à¤Ĩà¤°à¤£":5485,"à¤Ĩà¤ªà¤¨":5486,"à¤Ĩà¤§à¤°":5487,"à¤Ĩà¤®à¤¤":5488,"à¤Ĩà¤ĩà¤ķ":5489,"à¤Ĩà¤²à¤°":5490,"à¤Ĩà¤ķà¤¸":5491,"à¤Ĩà¤Ĺà¤®":5492,"à¤Ĩà¤¹à¤¤":5493,"à¤Ĩà¤²à¤¸":5494,"à¤Ĩà¤¸à¤«":5495,"à¤Ĩà¤īà¤²":5496,"à¤Ĩà¤Łà¤µ":5497,"à¤Ĩà¤Ĺà¤¸":5498,"à¤Ĩà¤ļà¤°à¤£":5499,"à¤Ĩà¤ķà¤²à¤¨":5500,"à¤Ĩà¤¯à¤¤à¤¨":5501,"à¤Ĩà¤ªà¤¤à¤¨":5502,"à¤¥à¤Ĺ":5503,"à¤¥à¤¹":5504,"à¤¥à¤ķà¤°":5505,"à¤¥à¤°à¤¨":5506,"à¤¥à¤¤à¤®":5507,"à¤¥à¤°à¤¬":5508,"à¤¥à¤°à¤¥":5509,"à¤ĸà¤ªà¤¤":5510,"à¤ĸà¤¤à¤¨":5511,"à¤ĸà¤°à¤¨":5512,"à¤ĸà¤°à¤¬":5513,"60000":5514,"à¤īà¤«":5515,"à¤īà¤Ľ":5516,"à¤īà¤¬à¤°":5517,"à¤īà¤¸à¤¨":5518,"à¤īà¤ªà¤¤":5519,"à¤īà¤§à¤°":5520,"à¤īà¤¨à¤¤":5521,"à¤īà¤¸à¤¬":5522,"à¤īà¤°à¤Ĺ":5523,"à¤īà¤²à¤¸":5524,"à¤īà¤§à¤®":5525,"à¤īà¤ĸà¤¡":5526,"à¤īà¤¬à¤²à¤¤":5527,"à¥īà¤ģ":5528,"à¤Īà¤ļ":5529,"à¤Īà¤ĸ":5530,"à¤Īà¤ķà¤°":5531,"à¤Īà¤Łà¤°":5532,"à¤Īà¤¸à¤°":5533,"à¤Īà¤¯à¤°":5534,"à¤Īà¤µà¤¨":5535,"à¤Īà¤®à¤°":5536,"à¤Īà¤Łà¤¨":5537,"à¤Īà¤ħà¤¡":5538,"à¤¾à¤Ĥà¥ĩ":5539,"1113":5540,"1119":5541,"1111":5542,"11187":5543,"à¥ĩà¤Ĥ--":5544,"à¤ķà¤°à¤²":5545,"à¤ķà¤°à¤®":5546,"à¤ķà¤°à¤ª":5547,"à¤ķà¤°à¤¦":5548,"âĢ²":5549,"2212":5550,"à¤ªà¤°à¤ª":5551,"à¤ªà¤°à¤Ĺ":5552,"à¤ªà¤°à¤¶":5553,"à¤ªà¤°à¤Ń":5554,"à¤ªà¤°à¤®à¤°":5555,"à¤ªà¤°à¤ªà¤ķ":5556,"à¤µà¤°à¤²":5557,"à¤µà¤°à¤Ł":5558,"à¤µà¤°à¤ľ":5559,"4523":5560,"6878":5561,"6739":5562,"à¤ĵà¤«":5563,"à¤ĵà¤·":5564,"à¤ĵà¤¥":5565,"à¤ĵà¤ªà¤°":5566,"à¤ĵà¤°à¤¹":5567,"à¤ĵà¤ıà¤¸":5568,"à¤ĵà¤ªà¤²":5569,"à¤ĵà¤ıà¤«":5570,"à¤ĵà¤°à¤²":5571,"à¤ĵà¤°à¤ĸ":5572,"à¤ĵà¤ľà¤¸":5573,"à¤ĵà¤¸à¤¸":5574,"à¤ĵà¤ıà¤¸à¤Ĩà¤Ī":5575,"à¤ĵà¤įà¤¸":5576,"4334":5577,"5337":5578,"8707":5579,"9700":5580,"9708":5581,"à¤°à¤¤à¤ķ":5582,"à¤°à¤¤à¤Ł":5583,"à¤°à¤¤à¤µà¤°":5584,"à¤ģâĢĻ":5585,"Ġà¤¸à¤¬":5586,"Ġà¤¸à¤¡":5587,"Ġà¤¸à¤¹à¤¯":5588,"7711":5589,"8830":5590,"à¥§à¥§à¥¯à¥«":5591,"7083":5592,"à¤¤à¤°à¤²":5593,"à¤¤à¤°à¤µ":5594,"à¤¤à¤°à¤¬":5595,"à¤ĺà¤¦":5596,"à¤ĺà¤£":5597,"à¤ĺà¤°à¤¬":5598,"3228":5599,"à¤¸à¤®à¤¦":5600,"à¤¸à¤®à¤ľ":5601,"à¤¸à¤®à¤¬à¤¨":5602,"à¤¸à¤®à¤ķà¤ķ":5603,"à¤Ľà¤ķà¤°":5604,"à¤Ľà¤ªà¤°":5605,"à¤Ľà¤¤à¤°":5606,"à¤Ľà¤Ľ":5607,"à¤Ľà¤ªà¤¤":5608,"à¤Ľà¤ªà¤µ":5609,"à¤Ľà¤łà¤µ":5610,"à¤Łà¤°à¤°":5611,"à¤Łà¤°à¤ķ":5612,"à¤Łà¤°à¤¡":5613,"à¤Łà¤°à¤¶":5614,"à¤Łà¤°à¤¬à¤°":5615,"à¤łà¤®":5616,"à¤łà¤¦":5617,"à¤łà¤¬":5618,"à¤łà¤ĩà¤²":5619,"à¤łà¤¤à¤®":5620,"Ġà¤ķà¤¬":5621,"Ġà¤ķà¤¸à¤®":5622,"Ġà¤ķà¤®à¤²":5623,"à¥¦à¥¯":5624,"à¤ľà¤¨à¤²":5625,"à¤ľà¤¨à¤µà¤°":5626,"à¤ľà¤¨à¤¸à¤®":5627,"à¤ľà¤¨à¤ķà¤²":5628,"à¤ľà¤¨à¤®à¤¤":5629,"à¤ľà¤¨à¤¨à¤ķ":5630,"à¤°à¤ķà¤¨":5631,"à¤°à¤ķà¤®":5632,"à¤°à¤ķà¤¬":5633,"7924":5634,"Ġà¤ªà¤µ":5635,"à¤ħà¤¨à¤°":5636,"à¤ħà¤¨à¤ķ":5637,"à¤ħà¤¨à¤ļ":5638,"à¤ħà¤¨à¤Ń":5639,"à¤ħà¤¨à¤ķà¤¹":5640,"à¤¢à¤¨":5641,"âĢįà¤¿":5642,"âĢįà¥ĥ":5643,"à¤®à¤¨à¤¨":5644,"à¤®à¤¨à¤µ":5645,"à¤®à¤¨à¤Ĺà¤°":5646,"7810":5647,"7880":5648,"à¤¸à¤°à¤®":5649,"à¤¸à¤°à¤¯":5650,"à¤¸à¤°à¤¶":5651,"à¤¸à¤°à¤¹à¤¦":5652,"à¤¶à¤¨à¤ķ":5653,"à¤¶à¤¨à¤®":5654,"à¤¶à¤¨à¤¸à¤°":5655,"à¤ķà¤²à¤¹":5656,"à¤¬à¤°à¤¶":5657,"à¤¬à¤°à¤®à¤¤":5658,"à¤¬à¤°à¤¨à¤µ":5659,"à¤¬à¤°à¤¦à¤¸":5660,"à¤°à¤¸à¤ķà¤²":5661,"à¤¯à¤¨à¤¨":5662,"à¤¯à¤¨à¤ķ":5663,"à¤¯à¤¨à¤ľ":5664,"à¥¨à¥¨à¥¦":5665,"à¥¨à¥¨à¥©":5666,"à¥¨à¥¨à¥¯":5667,"à¥¨à¥®à¥©":5668,"à¤°à¤®à¤ķ":5669,"à¤°à¤®à¤²":5670,"à¤°à¤®à¤µ":5671,"à¤°à¤®à¤ļ":5672,"à¤°à¤®à¤¹à¤²":5673,"à¤°à¤®à¤¬à¤¦":5674,"à¥įâĢįà¤¿":5675,"à¤¯à¤°à¤¶":5676,"à¤¯à¤°à¤«":5677,"à¤¯à¤°à¤ļà¤¨":5678,"à¤¯à¤°à¤¨à¤®":5679,"à¤¹à¤°à¤¨":5680,"à¤¹à¤°à¤Ĺ":5681,"à¤¾à¤ģà¥¤":5682,"à¤¦à¤°à¤°":5683,"à¤¦à¤°à¤ª":5684,"à¤¦à¤°à¤Ĺà¤¢":5685,"à¤®à¤¹à¤¬":5686,"à¤Ĺà¤°à¤ľ":5687,"à¤¸à¤¨à¤¨":5688,"à¤¸à¤¨à¤®":5689,"à¤¸à¤¨à¤¯":5690,"à¤¸à¤¨à¤¥":5691,"à¤¸à¤¨à¤¸à¤¨":5692,"à¤µà¤¨à¤«":5693,"à¤µà¤¨à¤ªà¤°":5694,"à¤µà¤¨à¤ļà¤°":5695,"à¤ħà¤²à¤¹":5696,"à¤ħà¤²à¤«":5697,"à¤ħà¤²à¤¬à¤®":5698,"à¤ªà¤¤à¤¤":5699,"à¤®à¤ķà¤®":5700,"à¤®à¤ķà¤¬":5701,"à¤®à¤ķà¤¸à¤¦":5702,"à¤ĩà¤¨à¤µà¤°":5703,"Ġà¤®à¤§":5704,"Ġà¤®à¤¶à¤°":5705,"à¤°à¤£à¤ķ":5706,"à¤°à¤£à¤§":5707,"à¤ªà¤¨à¤ķ":5708,"à¤ªà¤¨à¤µ":5709,"à¤ªà¤¨à¤¦":5710,"à¤ªà¤¨à¤ķà¤°":5711,"à¤ªà¤¨à¤ªà¤¤":5712,"à¤°à¤¹à¤²":5713,"à¤ıà¤¸à¤Ĩà¤°à¤¸":5714,"à¤°à¤µà¤ķ":5715,"à¤°à¤µà¤¤":5716,"à¤°à¤µà¤ľ":5717,"Ġà¤µà¤¸":5718,"Ġà¤µà¤§":5719,"à¤ıà¤ķà¤¦":5720,"à¤ıà¤ķà¤¡":5721,"à¤Ŀà¤ķ":5722,"à¤Ŀà¤®":5723,"à¤Ŀà¤£":5724,"à¤Ŀà¤ķà¤°":5725,"à¤Ŀà¤°à¤¨":5726,"à¤ŀà¤ª":5727,"à¤®à¤°à¤ķà¤°":5728,"Ġà¤°à¤¶":5729,"Ġà¤°à¤¥":5730,"à¤ħà¤°à¤¹à¤°":5731,"à¤Łà¤¨à¤²":5732,"à¤Łà¤¨à¤¶":5733,"à¥©à¥¨à¥¦":5734,"à¥©à¥¦à¥¦à¥¦":5735,"à¥©à¥«à¥¦":5736,"à¥©à¥¬à¥¦":5737,"à¥©à¥©à¥«":5738,"à¥©à¥¬à¥®":5739,"à¤²à¤¨à¤ķ":5740,"à¤²à¤¨à¤¶":5741,"à¤²à¤ķà¤¦":5742,"à¤µà¤¤à¤¶":5743,"à¤ĳà¤ī":5744,"à¤ĳà¤²à¤°":5745,"à¤ĳà¤°à¤²":5746,"à¤ĳà¤°à¤Ĺ":5747,"âĢĺ'":5748,"âĢĺâĢĻ":5749,"à¤¯à¤®à¤²":5750,"à¤¯à¤®à¤ª":5751,"à¤¬à¤²à¤®":5752,"à¤¬à¤²à¤¦":5753,"à¤Ĩà¤Īà¤°":5754,"à¤Ĩà¤Īà¤¨":5755,"à¤Ĩà¤Īà¤ıà¤¨à¤ıà¤¸":5756,"à¤Ĩà¤Īà¤ıà¤¨à¤ıà¤ļ":5757,"à¤ķà¤¨à¤«":5758,"à¤ļà¤¨à¤ľ":5759,"à¤¯à¤¤à¤¤":5760,"à¤¯à¤¤à¤®":5761,"à¥«à¥Ń":5762,"à¥«à¥¦à¥¦à¥¦":5763,"à¥«à¥¬à¥«":5764,"à¥«à¥¬à¥Ń":5765,"à¥«à¥®à¥¦":5766,"à¤īà¤ªà¤²":5767,"à¤īà¤ªà¤ª":5768,"à¤īà¤ªà¤§":5769,"à¤īà¤ªà¤®à¤¹":5770,"à¤īà¤ªà¤µà¤¨":5771,"à¤Ĩà¤°à¤¬":5772,"à¤Ĩà¤°à¤ıà¤«":5773,"à¤¬à¤¨à¤Ĺà¤°":5774,"à¤ıà¤²à¤°":5775,"à¤ıà¤²à¤ª":5776,"à¤ıà¤²à¤¬":5777,"à¤ıà¤²à¤ĵ":5778,"à¤ıà¤²à¤ıà¤®":5779,"à¤ıà¤²à¤ıà¤«":5780,"ino":5781,"inp":5782,"inan":5783,"inson":5784,"install":5785,"9436":5786,"à¤¡à¤°à¤Ĺ":5787,"à¤ıà¤¨à¤Ł":5788,"à¤ıà¤¨à¤ıà¤ķ":5789,"à¤ıà¤¨à¤ıà¤²":5790,"à¤ıà¤¨à¤Ĩà¤Īà¤Ł":5791,"à¤¤à¤¨à¤®":5792,"à¤¤à¤¨à¤§":5793,"à¤¤à¤¨à¤ĸ":5794,"à¤¤à¤¨à¤Ĺà¤°":5795,"à¤®à¤²à¤®":5796,"à¤®à¤²à¤ľ":5797,"à¥Ńà¥ª":5798,"à¥Ńà¥©à¥®":5799,"8217":5800,"à¥¬à¥¨à¥Ń":5801,"à¥¬à¥«à¥¦":5802,"à¥¬à¥¬à¥¦":5803,"Ġà¤¦à¤ķ":5804,"Ġà¤¦à¤®":5805,"Ġà¤¦à¤¬":5806,"Ġà¤¦à¤¶à¤®":5807,"à¤ľà¤°à¤²":5808,"ane":5809,"anti":5810,"anat":5811,"anos":5812,"à¤®à¤¤à¤Ń":5813,"ont":5814,"ones":5815,"Ġà¤¬à¤ļ":5816,"Ġà¤¬à¤¹à¤¨":5817,"Ġà¤¶à¤¬":5818,"Ġà¤¶à¤Łà¤²":5819,"à¤·à¤£à¤®":5820,"à¤¸à¤²à¤«":5821,"à¤ľà¤²à¤°":5822,"à¤ľà¤²à¤§":5823,"à¤ľà¤²à¤ļà¤°":5824,"à¤ļà¤°à¤¨":5825,"à¤ļà¤°à¤ĺ":5826,"à¤ĩà¤Łà¤®":5827,"à¤ĩà¤Łà¤¬":5828,"à¤ĩà¤Łà¤¹":5829,"12012":5830,"12011":5831,"1504":5832,"1505":5833,"ena":5834,"eno":5835,"enus":5836,"à¤Ĭà¤²":5837,"à¤Ĭà¤®":5838,"à¤Ĭà¤ľ":5839,"à¤Ĭà¤¬à¤¡":5840,"à¤Ĭà¤¦à¤²":5841,"tile":5842,"tiss":5843,"till":5844,"times":5845,"à¤Ĺà¤²à¤µ":5846,"à¤Ĺà¤²à¤¬":5847,"à¤Ĺà¤²à¤ªà¤¨":5848,"à¤ħà¤Ńà¤¨":5849,"à¤ħà¤Ńà¤¦":5850,"à¥®à¥ª":5851,"à¤ıà¤®à¤µ":5852,"à¤ıà¤®à¤ıà¤®":5853,"à¤ıà¤®à¤Īà¤ıà¤²":5854,"1901":5855,"1903":5856,"1904":5857,"1905":5858,"à¤ªà¤ķà¤¤":5859,"à¤ªà¤ķà¤µ":5860,"à¤ªà¤ķà¤¡à¤¨":5861,"à¥¯à¥«":5862,"à¥¯à¥ªà¥Ń":5863,"à¥¯à¥¬à¥Ń":5864,"à¥¯à¥¦à¥¬":5865,"à¤ħà¤¸à¤¦":5866,"à¤ħà¤¸à¤Ĺ":5867,"à¤ħà¤¸à¤«":5868,"à¤ħà¤¸à¤¤à¤¤":5869,"à¤ħà¤¸à¤«à¤²":5870,"à¤ħà¤¸à¤¹à¤¯":5871,"à¤ħà¤¸à¤«à¤²à¤¤":5872,"ars":5873,"aria":5874,"arge":5875,"à¤¤à¤ķà¤¬à¤°":5876,"à¤ĩà¤¡à¤²":5877,"1101":5878,"1103":5879,"11096":5880,"11095":5881,"à¤ķà¤¤à¤®":5882,"à¤ħà¤®à¤°à¤ķ":5883,"à¤¦à¤¨à¤ª":5884,"à¤¦à¤¨à¤¹":5885,"à¤¦à¤¨à¤ķà¤°":5886,"1193":5887,"1196":5888,"1198":5889,"1172":5890,"1173":5891,"1177":5892,"11732":5893,"à¤¹à¤¨à¤¸":5894,"à¤¹à¤¨à¤¦":5895,"alin":5896,"alth":5897,"alec":5898,"aland":5899,"altern":5900,"à¤°à¤¨à¤µ":5901,"à¤°à¤¨à¤Ĺ":5902,"à¤ªà¤¦à¤ķ":5903,"à¤ªà¤¦à¤¸":5904,"à¤ªà¤¦à¤Ń":5905,"à¤ªà¤¦à¤£":5906,"1165":5907,"2256":5908,"à¤ĩà¤¸à¤µ":5909,"1128":5910,"à¤¨à¤µà¤²":5911,"à¤¨à¤µà¤µ":5912,"à¤¨à¤µà¤¯":5913,"à¤¨à¤µà¤¦":5914,"à¤¨à¤µà¤Ń":5915,"à¤Ĺà¤¨à¤¸":5916,"22000":5917,"3570":5918,"3590":5919,"3597":5920,"1185":5921,"1186":5922,"2163":5923,"3250":5924,"3549":5925,"53000":5926,"à¤ħà¤ªà¤¶":5927,"à¤ħà¤ªà¤¹à¤°à¤£":5928,"à¤ĩà¤ķà¤¸":5929,"à¤§à¤¨à¤¤":5930,"2123":5931,"4409":5932,"à¤ķà¤®à¤¸":5933,"à¤ķà¤®à¤ļ":5934,"31560":5935,"Ġà¤Ńà¤Łà¤¨":5936,"à¤¡à¤²à¤¹":5937,"à¤µà¤²à¤®":5938,"à¤µà¤²à¤ª":5939,"à¤®à¤¸à¤¤":5940,"à¤®à¤¸à¤Ń":5941,"à¤®à¤¸à¤ķà¤°":5942,"à¤Ĳà¤µ":5943,"à¤Ĳà¤ªà¤²":5944,"à¤Ĳà¤¡à¤®":5945,"45000":5946,"esi":5947,"esch":5948,"estern":5949,"à¤µà¤ķà¤¥":5950,"4128":5951,"à¤¸à¤¹à¤®":5952,"à¤¸à¤¹à¤ķà¤°":5953,"à¤¸à¤¹à¤ľà¤¨à¤µ":5954,"à¥§à¥¯à¥§à¥«":5955,"à¥§à¥¯à¥¨à¥Ń":5956,"à¥§à¥¯à¥¨à¥«":5957,"à¥§à¥¯à¥§à¥§":5958,"à¥§à¥¯à¥¨à¥¬":5959,"à¥§à¥¯à¥¨à¥¯":5960,"à¥§à¥¯à¥¬à¥¦":5961,"à¥§à¥¯à¥ªà¥Ń":5962,"à¥§à¥¯à¥©à¥Ń":5963,"à¥§à¥¯à¥©à¥¨":5964,"à¥§à¥¯à¥¬à¥®":5965,"à¥§à¥¯à¥ªà¥®":5966,"à¥§à¥¯à¥¬à¥ª":5967,"Ġà¤ľà¤¹":5968,"à¤¨à¤ķà¤¦":5969,"à¤Īà¤¸à¤µ":5970,"à¤¯à¤²à¤Ł":5971,"2402":5972,"à¤īà¤¦à¤Ĺ":5973,"à¤īà¤¦à¤ĺ":5974,"à¤īà¤¦à¤¯à¤¨":5975,"à¤īà¤¦à¤Ńà¤µ":5976,"à¤ħà¤µà¤¦":5977,"à¤ħà¤µà¤Ĺ":5978,"à¤ħà¤µà¤ļ":5979,"à¤ħà¤µà¤ķà¤²":5980,"à¤ħà¤µà¤¯à¤µ":5981,"à¤ħà¤µà¤¤à¤°à¤£":5982,"18735":5983,"2705":5984,"à¤¤à¤®à¤Ł":5985,"à¤¤à¤®à¤¦":5986,"à¤ªà¤¹à¤²à¤µ":5987,"12810":5988,"14738":5989,"orr":5990,"order":5991,"à¤°à¤ľà¤¸":5992,"à¤°à¤ľà¤µ":5993,"à¤¯à¤¸à¤Ń":5994,"à¤²à¤®à¤Ł":5995,"à¤®à¤¦à¤ķà¤°":5996,"à¤Ķà¤¸":5997,"à¤Ķà¤ľ":5998,"à¥ħà¤Ĥ":5999,"59740":6000,"à¤ªà¤²à¤¬":6001,"à¤Łà¤ķà¤ķ":6002,"24635":6003,"à¤ķà¤Łà¤µ":6004,"à¤ıà¤«à¤Ł":6005,"à¤ıà¤«à¤¬":6006,"à¤ıà¤«à¤ıà¤«":6007,"à¤ıà¤«à¤Ĩà¤Īà¤Ĩà¤°":6008,"à¤ħà¤Ĺà¤µ":6009,"à¤²à¤Ĺà¤¢":6010,"issi":6011,"ich":6012,"icon":6013,"ices":6014,"icks":6015,"Ġà¤¹à¤¥":6016,"à¤°à¤Ńà¤¦":6017,"à¤īà¤¨à¤®":6018,"à¤°à¤¬à¤¦":6019,"à¤ļà¤²à¤ķà¤°":6020,"à¤ľà¤¯à¤ļ":6021,"à¤ľà¤¯à¤¦à¤¯":6022,"à¤¬à¤¦à¤®":6023,"à¤¬à¤¦à¤¹":6024,"à¤¬à¤¦à¤¤à¤®":6025,"atch":6026,"ating":6027,"atter":6028,"à¤¯à¤µà¤¶":6029,"à¤¯à¤µà¤§":6030,"asi":6031,"ases":6032,"à¥§à¥®à¥©":6033,"à¥§à¥®à¥¦à¥¦":6034,"à¥§à¥®à¥¨à¥Ń":6035,"à¥§à¥®à¥®à¥©":6036,"à¥§à¥®à¥¬à¥«":6037,"à¥§à¥®à¥©à¥¯":6038,"à¥§à¥®à¥©à¥§":6039,"iter":6040,"ital":6041,"ollow":6042,"à¤ıà¤¡à¤µà¤°":6043,"à¤ĸà¤°à¤ªà¤¤à¤µ":6044,"à¤µà¤µà¤¶":6045,"à¤Ĺà¤£à¤°":6046,"led":6047,"lex":6048,"leus":6049,"leaf":6050,"omy":6051,"omer":6052,"omas":6053,"à¤Ĩà¤¦à¤¤à¤¨":6054,"à¥Ĥà¤Ĥà¥¤":6055,"à¤ķà¤¡à¤ķ":6056,"à¤¸à¤¬à¤®":6057,"à¤¸à¤¬à¤µ":6058,"à¤¸à¤¬à¤Ł":6059,"à¤Ĺà¤µà¤¶":6060,"uss":6061,"à¤¹à¤¸à¤°à¤¤":6062,"chh":6063,"chen":6064,"chus":6065,"chem":6066,"chym":6067,"charge":6068,"à¤®à¤¯à¤ĸ":6069,"eda":6070,"Ġà¤ħà¤¡":6071,"Ġà¤ħà¤·":6072,"à¤Ĩà¤µà¤§":6073,"à¤ıà¤ļà¤¸":6074,"à¤ıà¤ļà¤Ł":6075,"à¤ıà¤ļà¤¬":6076,"à¤ıà¤ļà¤Ĩà¤Īà¤µ":6077,"eta":6078,"ets":6079,"eter":6080,"Ġà¤ĸà¤Ł":6081,"ings":6082,"inger":6083,"à¤ķà¤µà¤ļ":6084,"à¤ķà¤µà¤ļà¤ªà¤Ł":6085,"à¤¬à¤¸à¤µà¤¨":6086,"à¤¥à¤²à¤¸":6087,"tions":6088,"rochem":6089,"elli":6090,"Ġà¤ĩà¤£":6091,"à¤®à¤ľà¤¹à¤¬":6092,"à¥¨à¥¦à¥§":6093,"à¥¨à¥¦à¥ª":6094,"à¥¨à¥¦à¥¯":6095,"à¥¨à¥¦à¥¨à¥¦":6096,"à¥¨à¥¦à¥§à¥§":6097,"à¥¨à¥¦à¥¯à¥¯":6098,"à¥¨à¥¦à¥ªà¥¨":6099,"à¤¬à¤¡à¤µ":6100,"Ġà¤¡à¤ķ":6101,"à¤¦à¤²à¤ª":6102,"à¤¦à¤²à¤¹à¤¨":6103,"à¤¬à¤¢à¤¨":6104,"à¤ªà¤£à¤ķ":6105,"à¤īà¤²à¤Ŀ":6106,"à¤īà¤²à¤Ŀà¤¨":6107,"à¤ĭà¤Ĺ":6108,"urc":6109,"ural":6110,"à¤ªà¤°à¤®à¤¶":6111,"à¤¯à¤£à¤ª":6112,"à¥§à¥«à¥¨":6113,"à¥§à¥«à¥©à¥¦":6114,"à¥§à¥«à¥¬à¥Ń":6115,"à¥§à¥«à¥Ńà¥«":6116,"star":6117,"stell":6118,"stron":6119,"à¤ľà¤Ĺà¤¦à¤²à¤ª":6120,"thm":6121,"à¤ľà¤ķà¤®à¤²":6122,"à¤ħà¤«à¤¸":6123,"à¤ħà¤«à¤¸à¤°":6124,"à¥§à¥¬à¥¯":6125,"à¥§à¥¬à¥§à¥®":6126,"à¥§à¥¬à¥¨à¥¯":6127,"à¥§à¥¬à¥ªà¥Ń":6128,"à¥§à¥¬à¥®à¥©":6129,"à¥§à¥¬à¥¯à¥®":6130,"illi":6131,"illa":6132,"à¤Ĺà¤¡à¤¬à¤¡":6133,"à¤ħà¤ľà¤¬":6134,"à¤ħà¤ľà¤Ĺà¤°":6135,"à¥§à¥¨à¥Ń":6136,"à¤ĳà¤«à¤¸":6137,"amb":6138,"ament":6139,"à¤°à¤ļà¤¯":6140,"à¤¨à¤ľà¤¦":6141,"Ġà¤Ĩà¤²":6142,"Ġà¤Ĩà¤ª":6143,"Ġà¤Ĩà¤ĩ":6144,"à¤ľà¤¸à¤ľ":6145,"à¥§à¥Ńà¥Ń":6146,"à¥§à¥Ńà¥¦à¥¦":6147,"à¥§à¥Ńà¥¯à¥§":6148,"acter":6149,"adv":6150,"adhy":6151,"adian":6152,"à¤¡à¤ķà¤¶à¤¨":6153,"rem":6154,"rey":6155,"reac":6156,"à¤ļà¤®à¤Ĺ":6157,"à¥§à¥¦à¥¨à¥¦":6158,"à¥§à¥¦à¥«à¥¦":6159,"à¥§à¥¦à¥©à¥«":6160,"à¥§à¥¦à¥¬à¥§":6161,"ula":6162,"ulus":6163,"à¤®à¤Ĺà¤°à¤®à¤ļ":6164,"à¥§à¥©à¥«à¥¦":6165,"à¥§à¥©à¥©à¥¨":6166,"à¥§à¥©à¥¦à¥Ń":6167,"ages":6168,"à¤§à¤µà¤Ĺà¤¢":6169,"à¤¥à¤®à¤ª":6170,"à¤īà¤łà¤¨":6171,"Ġà¤®à¤¹à¤®":6172,"à¤ħà¤ªà¤°à¤¦à¤¨":6173,"ried":6174,"ript":6175,"ribution":6176,"ogon":6177,"osh":6178,"à¤ıà¤µà¤®":6179,"à¤µà¤°à¤£à¤µ":6180,"oph":6181,"opper":6182,"Ġà¤ľà¤¨à¤¸":6183,"à¤Ĩà¤®à¤¦à¤¨":6184,"div":6185,"diver":6186,"dimen":6187,"dialec":6188,"ectic":6189,"econom":6190,"à¤ļà¤¢à¤¨":6191,"à¤ıà¤¯à¤°à¤µ":6192,"à¤ıà¤¯à¤°à¤Ł":6193,"à¤īà¤ľà¤¡":6194,"à¥¨à¥Ńà¥§à¥©":6195,"à¥¨à¥Ńà¥®à¥©":6196,"à¥¨à¥Ńà¥ªà¥¬":6197,"à¥¨à¥Ńà¥ªà¥¯":6198,"à®²":6199,"à®ķ":6200,"à®Ł":6201,"à®°à®®":6202,"à¤Ļà¤®":6203,"à¤¹à¤¡à¤¸à¤¨":6204,"à¤Ĩà¤ĩà¤ı":6205,"à¤Ĩà¤ĩà¤µà¤°":6206,"à¤Ĩà¤ĩà¤ıà¤¸à¤¬":6207,"à¤Ńà¤Ĺà¤µà¤¦":6208,"à¤ĺà¤Łà¤¨à¤ķ":6209,"ineering":6210,"dex":6211,"iae":6212,"ute":6213,"à¤²à¤ļà¤¸":6214,"à¤Ĺà¤łà¤¬":6215,"emer":6216,"ement":6217,"à¥¨à¥©à¥¦":6218,"à¥¨à¥©à¥¨à¥©":6219,"à¥¨à¥©à¥®à¥©":6220,"à¥¨à¥©à¥«à¥¨":6221,"à¥¨à¥«à¥¨":6222,"à¥¨à¥«à¥§à¥¯":6223,"à¥¨à¥«à¥¨à¥¦":6224,"à¥¨à¥ªà¥«à¥¦":6225,"à¥¨à¥ªà¥¬à¥ª":6226,"à¥¨à¥ªà¥®à¥®":6227,"ube":6228,"à¤Ĩà¤īà¤Łà¤²":6229,"à¥¨à¥¬à¥®à¥¦":6230,"à¥¨à¥¬à¥Ńà¥§":6231,"à¥¨à¥¬à¥¯à¥ª":6232,"à¥¨à¥¦à¥¦à¥«":6233,"à¥¨à¥¦à¥¦à¥¬":6234,"ident":6235,"obile":6236,"obacter":6237,"Ġà¤¦à¤°à¤µ":6238,"à¤įà¤ķ":6239,"à¤įà¤²":6240,"à¤įà¤®":6241,"à¤įà¤®à¤Ī":6242,"à¤¨à¤Łà¤µà¤°":6243,"à¥¨à¥¯à¥ªà¥Ń":6244,"à¥¨à¥¯à¥©à¥¯":6245,"à¥¨à¥¯à¥Ńà¥§":6246,"Indi":6247,"Intel":6248,"Intro":6249,"Index":6250,"akh":6251,"à¤Ńà¤°à¤¤à¤ª":6252,"ISBN":6253,"ayak":6254,"à¤ķà¤ļà¤¹à¤°":6255,"à¤ĵà¤µà¤°à¤²":6256,"à¤ĵà¤µà¤°à¤«":6257,"istoc":6258,"tebr":6259,"uck":6260,"ucent":6261,"induc":6262,"Anc":6263,"mail":6264,"maxim":6265,"ments":6266,"ock":6267,"tain":6268,"ÙĦÙĬ":6269,"à¥¨à¥¨à¥§à¥¦":6270,"à¥¨à¥¨à¥¨à¥Ń":6271,"à¥¬à¥«à¥«":6272,"scale":6273,"script":6274,"à¤¤à¤¹à¤ĸ":6275,"à¤īà¤Ńà¤°à¤¨":6276,"à¤īà¤Ńà¤¯à¤²":6277,"à¤°à¤¹à¤£à¤¶":6278,"à¥§à¥¯à¥«à¥§":6279,"à¥§à¥¯à¥«à¥©":6280,"à¥§à¥¯à¥«à¥Ń":6281,"ASCII":6282,"End":6283,"IDI":6284,"head":6285,"quar":6286,"à¤¹à¤¥à¤ķà¤°à¤ĺ":6287,"à¤ħà¤µà¤°à¤ķ":6288,"à¥©à¥Ńà¥Ń":6289,"ants":6290,"ACH":6291,"ACT":6292,"cone":6293,"consum":6294,"ook":6295,"oura":6296,"rug":6297,"à¥¨à¥®à¥ªà¥ª":6298,"à¤Ĩà¤Īà¤ıà¤¸à¤¬":6299,"à¥§à¥¯à¥Ńà¥¦":6300,"ATM":6301,"MPG":6302,"glob":6303,"à¤¨à¤µà¤°à¤¤":6304,"000000":6305,"à¥ªà¥«à¥©":6306,"à¥ªà¥«à¥«":6307,"à¥§à¥¯à¥®à¥¬":6308,"CSA":6309,"CSI":6310,"Stud":6311,"States":6312,"oster":6313,"perc":6314,"trac":6315,"trade":6316,"Ġà¤ıà¤¸à¤¯":6317,"à¤¨à¤«à¤°à¤¤":6318,"à¤ªà¤¹à¤¨à¤¨":6319,"à¤ªà¤¹à¤¨à¤¤":6320,"à¤ľà¤Ĺà¤¤à¤Ĺ":6321,"à¤ıà¤ıà¤ıà¤«":6322,"à¥¯à¥¯à¥¬":6323,"à¤ĭà¤£à¤¦":6324,"exten":6325,"gence":6326,"gency":6327,"generation":6328,"hanam":6329,"press":6330,"print":6331,"à¤ªà¤°à¤µà¤²à¤¯":6332,"intosh":6333,"à¥§à¥¯à¥¦à¥ª":6334,"icals":6335,"à¥§à¥®à¥«à¥Ń":6336,"Market":6337,"augh":6338,"clim":6339,"cloth":6340,"ebook":6341,"iber":6342,"ody":6343,"program":6344,"Ø³ÙĨ":6345,"à¤¨à¤ľà¤°à¤¬":6346,"à¤¤à¤°à¤«à¤²à¤ķ":6347,"à¤Ĺà¤²à¤¤à¤«à¤¹à¤®":6348,"à¥§à¥¯à¥¯à¥¦":6349,"Ġà¤ıà¤¯à¤°à¤²":6350,"Prot":6351,"stig":6352,"udon":6353,"à²²":6354,"à¤®à¤¸à¤¨à¤µ":6355,"à¤µà¤²à¤¨à¤¶":6356,"à¤Ĺà¤²à¤¨à¤ķ":6357,"à¤ļà¤°à¤®à¤ª":6358,"ending":6359,"à¥§à¥®à¥®à¥«":6360,"MSN":6361,"MTV":6362,"Mystic":6363,"fix":6364,"file":6365,"poly":6366,"Ġà¤¹à¤°à¤Ĺ":6367,"à¤¨à¤°à¤ķà¤Ł":6368,"à¤²à¤ĸà¤¨à¤¦":6369,"à¤§à¤¶à¤¤à¤ķ":6370,"à¤Ĩà¤¯à¤°à¤¨":6371,"à¤Ĩà¤¯à¤°à¤²":6372,"à¤Ĩà¤ĩà¤¡à¤²":6373,"Ø§ÙĦÙħ":6374,"ARM":6375,"ARP":6376,"Media":6377,"Plus":6378,"Server":6379,"XXX":6380,"gerb":6381,"garh":6382,"method":6383,"mada":6384,"pse":6385,"syn":6386,"system":6387,"à¤ľà¤¬à¤°à¤¦à¤¸":6388,"à¤ıà¤¸à¤ıà¤¸à¤Ĩà¤°":6389,"à¤Ĩà¤Īà¤ıà¤®à¤ıà¤«":6390,"à¥«à¥¬à¥¬":6391,"engineering":6392,"Discri":6393,"ERS":6394,"FCs":6395,"HSV":6396,"Music":6397,"Zealand":6398,"aik":6399,"à¤®à¤ĸà¤®à¤²":6400,"à¤ħà¤µà¤¨à¤¤":6401,"à¤Ĩà¤Īà¤Ĩà¤Īà¤Ĩà¤Īà¤Ł":6402,"à¤ħà¤¸à¤¹à¤®à¤¤":6403,"organ":6404,"à¥§à¥®à¥Ńà¥Ń":6405,"lavan":6406,"Apple":6407,"Group":6408,"Head":6409,"Kingdom":6410,"Make":6411,"Orbit":6412,"Poly":6413,"Preinstall":6414,"Royal":6415,"SHA":6416,"SWNT":6417,"burn":6418,"cross":6419,"crypt":6420,"soft":6421,"series":6422,"self":6423,"Î¼Î¹":6424,"ÏģÎ±":6425,"Ø¨ÙĪ":6426,"à¥łà¤¤":6427,"à¥łà¤·":6428,"à¤Īà¤ıà¤«à¤ı":6429,"à¥¨à¥§à¥ªà¥«":6430,"à¥¨à¥§à¥ªà¥Ń":6431,"anitas":6432,"à¤ıà¤ļà¤ıà¤¸à¤µ":6433,"scope":6434,"scopic":6435,"à¤īà¤Ńà¤¯à¤ļà¤°":6436,"Ð°Ñı":6437,"AVC":6438,"Corpor":6439,"Cross":6440,"Eccl":6441,"Glob":6442,"Master":6443,"Macintosh":6444,"Odob":6445,"Pres":6446,"ROM":6447,"Society":6448,"Trip":6449,"broad":6450,"plasma":6451,"ÑĤÑ":6452,"à³į":6453,"à¤Ĺà¤Ĺà¤¨à¤ļ":6454,"à¥¨à¥¨à¥ªà¥©":6455,"india":6456,"tification":6457,"à¥§à¥¨à¥¦à¥¨":6458,"ridge":6459,"ogenic":6460,"ography":6461,"England":6462,"ighth":6463,"Services":6464,"carbonate":6465,"Cricket":6466,"Consum":6467,"GUI":6468,"Geo":6469,"GrenzgÃ¤n":6470,"Google":6471,"Limit":6472,"MgCl":6473,"Nallavan":6474,"Psittac":6475,"Stati":6476,"Scratch":6477,"Univer":6478,"UMTS":6479,"dorf":6480,"fusion":6481,"foot":6482,"mechan":6483,"zoites":6484,"×Ļ×":6485,"åľĭè":6486,"à¤¦à¤¬à¤¦à¤¬":6487,"à¤¥à¤°à¤¥à¤°":6488,"à¥ĩà¤Ĥ----":6489,"à¥¨à¥¨à¥¯à¥ª":6490,"à¥¨à¥®à¥©à¥Ń":6491,"anatom":6492,"ariable":6493,"rochemicals":6494,"ellip":6495,"dimension":6496,"istocene":6497,"Discrimin":6498,"Preinstallation":6499}